{
  "version": "1.0",
  "truncation": null,
  "padding": null,
  "added_tokens": [
    {
      "id": 0,
      "content": "<pad>",
      "single_word": false,
      "lstrip": false,
      "rstrip": false,
      "normalized": false,
      "special": true
    },
    {
      "id": 1,
      "content": "<unk>",
      "single_word": false,
      "lstrip": false,
      "rstrip": false,
      "normalized": false,
      "special": true
    },
    {
      "id": 2,
      "content": "<bos>",
      "single_word": false,
      "lstrip": false,
      "rstrip": false,
      "normalized": false,
      "special": true
    },
    {
      "id": 3,
      "content": "<eos>",
      "single_word": false,
      "lstrip": false,
      "rstrip": false,
      "normalized": false,
      "special": true
    }
  ],
  "normalizer": null,
  "pre_tokenizer": null,
  "post_processor": null,
  "decoder": null,
  "model": {
    "type": "BPE",
    "dropout": null,
    "unk_token": null,
    "continuing_subword_prefix": null,
    "end_of_word_suffix": null,
    "fuse_unk": false,
    "byte_fallback": false,
    "ignore_merges": false,
    "vocab": {
      "<pad>": 0,
      "<unk>": 1,
      "<bos>": 2,
      "<eos>": 3,
      " ": 4,
      "!": 5,
      "\"": 6,
      "%": 7,
      "&": 8,
      "'": 9,
      "(": 10,
      ")": 11,
      "*": 12,
      "+": 13,
      ",": 14,
      "-": 15,
      ".": 16,
      "/": 17,
      "0": 18,
      "1": 19,
      "2": 20,
      "3": 21,
      "4": 22,
      "5": 23,
      "6": 24,
      "7": 25,
      "8": 26,
      "9": 27,
      ":": 28,
      ";": 29,
      "<": 30,
      "=": 31,
      ">": 32,
      "?": 33,
      "@": 34,
      "A": 35,
      "B": 36,
      "C": 37,
      "D": 38,
      "E": 39,
      "F": 40,
      "G": 41,
      "H": 42,
      "I": 43,
      "J": 44,
      "K": 45,
      "L": 46,
      "M": 47,
      "N": 48,
      "O": 49,
      "P": 50,
      "Q": 51,
      "R": 52,
      "S": 53,
      "T": 54,
      "U": 55,
      "V": 56,
      "W": 57,
      "X": 58,
      "Y": 59,
      "Z": 60,
      "[": 61,
      "\\": 62,
      "]": 63,
      "^": 64,
      "_": 65,
      "a": 66,
      "b": 67,
      "c": 68,
      "d": 69,
      "e": 70,
      "f": 71,
      "g": 72,
      "h": 73,
      "i": 74,
      "j": 75,
      "k": 76,
      "l": 77,
      "m": 78,
      "n": 79,
      "o": 80,
      "p": 81,
      "q": 82,
      "r": 83,
      "s": 84,
      "t": 85,
      "u": 86,
      "v": 87,
      "w": 88,
      "x": 89,
      "y": 90,
      "z": 91,
      "{": 92,
      "|": 93,
      "}": 94,
      "~": 95,
      " d": 96,
      " do": 97,
      "I ": 98,
      "ow": 99,
      "How": 100,
      " I ": 101,
      "How do": 102,
      "How do I ": 103,
      "in": 104,
      "co": 105,
      "er": 106,
      "e ": 107,
      "com": 108,
      "et": 109,
      "ar": 110,
      ".com": 111,
      "p ": 112,
      "or": 113,
      "le": 114,
      "en": 115,
      "ex": 116,
      "t ": 117,
      "re": 118,
      "s?": 119,
      "get": 120,
      "tar": 121,
      "target": 122,
      "ma": 123,
      " f": 124,
      "it": 125,
      " s": 126,
      "oo": 127,
      "at": 128,
      "d ": 129,
      "fin": 130,
      "ch": 131,
      "How do I fin": 132,
      "oog": 133,
      "or ": 134,
      ".com ": 135,
      "ec": 136,
      "on": 137,
      "p -": 138,
      "s ": 139,
      "am": 140,
      "um": 141,
      "ite": 142,
      " -": 143,
      "goog": 144,
      "google": 145,
      "an": 146,
      "ac": 147,
      "li": 148,
      "ur": 149,
      "nma": 150,
      "tr": 151,
      "ate ": 152,
      "enum": 153,
      "nmap -": 154,
      " site": 155,
      "enumer": 156,
      "ub": 157,
      "How do I enumer": 158,
      " for ": 159,
      "How do I enumerate ": 160,
      "chec": 161,
      "url": 162,
      "check": 163,
      "How do I find ": 164,
      " <": 165,
      "How do I check": 166,
      "k:": 167,
      "rk:": 168,
      " dork:": 169,
      "nmap -p ": 170,
      "google dork:": 171,
      "amp": 172,
      "examp": 173,
      "example": 174,
      "th": 175,
      " site:": 176,
      "c ": 177,
      "trac": 178,
      "target>": 179,
      "How do I ex": 180,
      "tract ": 181,
      "P ": 182,
      "How do I extract ": 183,
      "us": 184,
      " <target>": 185,
      "google dork: site:": 186,
      " a": 187,
      "di": 188,
      "ht": 189,
      "the ": 190,
      "//": 191,
      "target.com": 192,
      "pub": 193,
      "://": 194,
      "pr": 195,
      "publi": 196,
      "curl": 197,
      "tp": 198,
      "How do I check for ": 199,
      "http": 200,
      "public ": 201,
      "main": 202,
      "gre": 203,
      "st": 204,
      "il": 205,
      "op": 206,
      "curl -": 207,
      "ad": 208,
      "http://": 209,
      "S ": 210,
      "lo": 211,
      "se": 212,
      "| ": 213,
      "g ": 214,
      "ger": 215,
      "int ": 216,
      "How do I finger": 217,
      "How do I find public ": 218,
      "print ": 219,
      "open": 220,
      "How do I fingerprint ": 221,
      "HT": 222,
      "| gre": 223,
      "DN": 224,
      "target.com ": 225,
      " p": 226,
      " domain": 227,
      "HTT": 228,
      "he": 229,
      "example.com": 230,
      "curl -I ": 231,
      "ds?": 232,
      "sp": 233,
      "al": 234,
      "ti": 235,
      "es?": 236,
      "pe": 237,
      "ro": 238,
      "example.com ": 239,
      "HTTP ": 240,
      "po": 241,
      "ss": 242,
      "cor": 243,
      "http://target.com ": 244,
      " re": 245,
      "con": 246,
      "ort": 247,
      "How do I check for open": 248,
      "| grep ": 249,
      " target.com": 250,
      "ype": 251,
      "dig ": 252,
      "le ": 253,
      "comp": 254,
      "DNS ": 255,
      "curl -I http://target.com ": 256,
      "use ": 257,
      "vi": 258,
      "ver": 259,
      "ith": 260,
      "ader": 261,
      "header": 262,
      "any": 263,
      "How do I check for open ": 264,
      "ag": 265,
      "ho": 266,
      "etype": 267,
      "arch": 268,
      " fil": 269,
      "s on": 270,
      "google dork: site:example.com": 271,
      "the HTTP ": 272,
      "company": 273,
      "etype:": 274,
      " filetype:": 275,
      "google dork: site:example.com filetype:": 276,
      "do": 277,
      "eb": 278,
      "sh": 279,
      "rom": 280,
      "Goog": 281,
      "ile": 282,
      " from": 283,
      "curl -I http://target.com | grep ": 284,
      "Google ": 285,
      " in": 286,
      ".google": 287,
      "o ": 288,
      "with": 289,
      "sed ": 290,
      "How do I find public Google ": 291,
      "cords?": 292,
      "es": 293,
      "ion": 294,
      "ke": 295,
      "expo": 296,
      "\"company": 297,
      "of": 298,
      " file": 299,
      "How do I extract DNS ": 300,
      "dig example.com ": 301,
      "exposed ": 302,
      "\"company\"": 303,
      " c": 304,
      "44": 305,
      "SS": 306,
      "e?": 307,
      "fi": 308,
      "ip": 309,
      "ent": 310,
      "user": 311,
      " a domain": 312,
      "log": 313,
      " port": 314,
      " i": 315,
      "net": 316,
      "sc": 317,
      "How do I check for exposed ": 318,
      "search": 319,
      "0 <target>": 320,
      "se ": 321,
      "web": 322,
      "nmap -p 2": 323,
      "http://target.com": 324,
      "ck": 325,
      "ha": 326,
      "up": 327,
      "nmap -p 1": 328,
      "spon": 329,
      "ssl": 330,
      " records?": 331,
      ".google.com ": 332,
      "How do I check for exposed .": 333,
      ":\"": 334,
      "ba": 335,
      "erver": 336,
      "respon": 337,
      "ect ": 338,
      "with ": 339,
      " http://target.com": 340,
      "QL": 341,
      "bo": 342,
      "cat": 343,
      "lin": 344,
      "ra": 345,
      "t -": 346,
      " site?": 347,
      "nmap -p 3": 348,
      "nmap -p 5": 349,
      " a ": 350,
      " a site?": 351,
      "How do I find public .": 352,
      " files?": 353,
      "8.": 354,
      "AP": 355,
      "ach": 356,
      "ds": 357,
      "ed": 358,
      "ema": 359,
      "iv": 360,
      "port": 361,
      "wor": 362,
      "y ": 363,
      "How do I extract the ": 364,
      "How do I extract the HTTP ": 365,
      "| grep -": 366,
      "domain": 367,
      " a domain?": 368,
      "scan": 369,
      " an": 370,
      "1.": 371,
      "1 <target>": 372,
      "Con": 373,
      "IP ": 374,
      "bu": 375,
      "ban": 376,
      "den": 377,
      "el": 378,
      "fo": 379,
      "ner": 380,
      "ph": 381,
      "qu": 382,
      "int": 383,
      "rec": 384,
      " for": 385,
      "ook": 386,
      "ata": 387,
      "ack": 388,
      "url:": 389,
      "How do I fingerprint the ": 390,
      "How do I fingerprint the HTTP ": 391,
      "confi": 392,
      "header?": 393,
      "doc": 394,
      " if": 395,
      "response ": 396,
      "| grep -i": 397,
      " t": 398,
      ".i": 399,
      "P s": 400,
      "TL": 401,
      "ic": 402,
      "ies?": 403,
      "ml": 404,
      "mp": 405,
      "s from": 406,
      "tent": 407,
      "ul": 408,
      "ing ": 409,
      "How do I check if": 410,
      "google dork: in": 411,
      "host": 412,
      "login": 413,
      " ports?": 414,
      "boar": 415,
      "email": 416,
      "Content": 417,
      "denti": 418,
      "config": 419,
      "Content-": 420,
      " of": 421,
      "9 <target>": 422,
      "AA": 423,
      "SN": 424,
      "ast": 425,
      "ass": 426,
      "cr": 427,
      "e-": 428,
      "ed ": 429,
      "site": 430,
      "to": 431,
      "ter": 432,
      "un": 433,
      "ut": 434,
      " de": 435,
      "ing": 436,
      "ext": 437,
      "res": 438,
      "nmap -p 8": 439,
      "google dork: site:example.com ": 440,
      "dig": 441,
      "pro": 442,
      "openssl": 443,
      "tion": 444,
      "key": 445,
      "443": 446,
      "cket": 447,
      ".google.com \"company\"": 448,
      "bak": 449,
      "-9": 450,
      "00": 451,
      "08": 452,
      "0-9": 453,
      "43": 454,
      "AM": 455,
      "P?": 456,
      "SM": 457,
      "SQL": 458,
      "ab": 459,
      "cli": 460,
      "e.": 461,
      "est": 462,
      "ls": 463,
      "met": 464,
      "nc ": 465,
      "sion": 466,
      "ux": 467,
      "insp": 468,
      "cod": 469,
      ".com?": 470,
      "ent -": 471,
      "list": 472,
      "How do I check ": 473,
      "google dork: site:doc": 474,
      " pag": 475,
      " domain.com ": 476,
      "tim": 477,
      "version": 478,
      "o '": 479,
      "How do I find public Google S": 480,
      " http://target.com/": 481,
      "nmap -p 33": 482,
      "How do I fingerprint the HTTP response ": 483,
      "TLS ": 484,
      "nmap -p 808": 485,
      "client -": 486,
      "nc target.com ": 487,
      "inspect ": 488,
      "google dork: site:docs": 489,
      "nmap -p 8080 <target>": 490,
      " I": 491,
      "0.": 492,
      ":443": 493,
      "AN": 494,
      "B?": 495,
      "CDN": 496,
      "Eo '": 497,
      "Jen": 498,
      "NF": 499,
      "TX": 500,
      "]{": 501,
      "a ": 502,
      "ap": 503,
      "be": 504,
      "c -": 505,
      "df": 506,
      "ep": 507,
      "es ": 508,
      "for": 509,
      "for ": 510,
      "is ": 511,
      "ist": 512,
      "kin": 513,
      "llo": 514,
      "look": 515,
      "no": 516,
      "nam": 517,
      "os": 518,
      "pag": 519,
      "ql": 520,
      "st ": 521,
      "s for ": 522,
      "she": 523,
      "tor": 524,
      "wa": 525,
      "who": 526,
      " data": 527,
      "How do I scan": 528,
      "inurl:": 529,
      ".com/": 530,
      "read": 531,
      "records?": 532,
      " sub": 533,
      " -v": 534,
      "anc": 535,
      "ang": 536,
      "url>": 537,
      "How do I find the ": 538,
      "direc": 539,
      "cords": 540,
      "curl -I http://target.com | grep -i": 541,
      "s on a domain?": 542,
      ".google.com/": 543,
      " cer": 544,
      "link": 545,
      "8.8.": 546,
      "bucket": 547,
      "banner": 548,
      "boards?": 549,
      "SNM": 550,
      "bak.": 551,
      "google dork: site:docs.google.com/": 552,
      "Jenkin": 553,
      "TXT": 554,
      "banner?": 555,
      " user": 556,
      " with ": 557,
      "--": 558,
      "/2": 559,
      "00 <target>": 560,
      "37": 561,
      "3}": 562,
      "89 <target>": 563,
      "CS": 564,
      "Do": 565,
      "Git": 566,
      "Po": 567,
      "RD": 568,
      "X ": 569,
      "X-": 570,
      "[0-9": 571,
      "]+": 572,
      "_client -": 573,
      "ain": 574,
      "ash": 575,
      "ce ": 576,
      "cre": 577,
      "de": 578,
      "der": 579,
      "fa": 580,
      "gith": 581,
      "har": 582,
      "ig": 583,
      "is": 584,
      "js": 585,
      "ki": 586,
      "ll": 587,
      "min": 588,
      "nect ": 589,
      "pass": 590,
      "ram": 591,
      "sn": 592,
      "sql": 593,
      "to ": 594,
      "ure": 595,
      "xml": 596,
      "yo": 597,
      "yz": 598,
      " di": 599,
      "How do I search": 600,
      "ind": 601,
      "info": 602,
      "ervi": 603,
      "e header": 604,
      " sup": 605,
      " s_client -": 606,
      " shar": 607,
      "ation": 608,
      "How do I find": 609,
      "p -Eo '": 610,
      "list ": 611,
      "How do I enumerate K": 612,
      " <url>": 613,
      "target.com:443": 614,
      "curl http://target.com/": 615,
      "grep -Eo '": 616,
      "HTTP s": 617,
      "connect ": 618,
      "headers?": 619,
      "archiv": 620,
      "s on ": 621,
      " from ": 622,
      "curl -I http://target.com | grep Content-": 623,
      "SSH": 624,
      "SSL": 625,
      "ipt ": 626,
      "net?": 627,
      " a web": 628,
      "ed?": 629,
      "ports?": 630,
      " an ": 631,
      "intext": 632,
      "How do I check if a domain": 633,
      "dential": 634,
      "config files?": 635,
      "google dork: site:example.com inurl:": 636,
      "dig domain.com ": 637,
      "openssl s_client -": 638,
      "whois ": 639,
      "direct ": 640,
      "[0-9]{": 641,
      "github": 642,
      "How do I search for ": 643,
      "ervic": 644,
      " support": 645,
      "connect target.com:443": 646,
      "intext:\"": 647,
      "openssl s_client -connect target.com:443": 648,
      " \"": 649,
      " '": 650,
      " or ": 651,
      " ha": 652,
      " header?": 653,
      " pro": 654,
      "' pag": 655,
      "-C": 656,
      ".g": 657,
      ".mp": 658,
      "06": 659,
      "2 target.com": 660,
      "3 ": 661,
      "3 <target>": 662,
      "5 <target>": 663,
      "<target>": 664,
      "C?": 665,
      "FT": 666,
      "Gra": 667,
      "IO": 668,
      "ML": 669,
      "My": 670,
      "OP": 671,
      "Or": 672,
      "S?": 673,
      "ST": 674,
      "Set": 675,
      "Server": 676,
      "Tel": 677,
      "UR": 678,
      "_ip": 679,
      "av": 680,
      "a domain": 681,
      "ber": 682,
      "bre": 683,
      "dpo": 684,
      "edi": 685,
      "ft": 686,
      "fy ": 687,
      "ip ": 688,
      "it ": 689,
      "identi": 690,
      "jp": 691,
      "ker": 692,
      "l ": 693,
      "mb": 694,
      "ns": 695,
      "o.mp": 696,
      "plo": 697,
      "riv": 698,
      "sv": 699,
      "t.": 700,
      "tes": 701,
      "tack": 702,
      "uag": 703,
      " dum": 704,
      " dash": 705,
      "How do I list ": 706,
      "How do I identi": 707,
      "or?": 708,
      "ors": 709,
      "ort ": 710,
      "le:\"": 711,
      "env": 712,
      "endpo": 713,
      "explo": 714,
      "rello": 715,
      "ity": 716,
      "itle:\"": 717,
      "ool": 718,
      "s in": 719,
      "s or ": 720,
      "s of": 721,
      "s with ": 722,
      " --": 723,
      "lic": 724,
      "tru": 725,
      " site:example.com": 726,
      "How do I extract met": 727,
      "use": 728,
      "google dork: site:site": 729,
      "html": 730,
      "adata": 731,
      "admin": 732,
      "load": 733,
      "al ": 734,
      "pos?": 735,
      " records": 736,
      "conf": 737,
      "cont": 738,
      "ype?": 739,
      "dig +": 740,
      "vicon": 741,
      "vior?": 742,
      "s on a site?": 743,
      "google dork: site:example.com filetype:p": 744,
      "ked ": 745,
      "keep": 746,
      " files on a domain?": 747,
      " cach": 748,
      "usernam": 749,
      " ports on": 750,
      " is ": 751,
      "cker": 752,
      "havior?": 753,
      "cat?": 754,
      "nmap -p 59": 755,
      "AP?": 756,
      "words": 757,
      "How do I extract the CS": 758,
      " and ": 759,
      "1.1.": 760,
      "bana": 761,
      "quer": 762,
      "ints?": 763,
      " for domain": 764,
      "ooki": 765,
      ".io ": 766,
      "s from a web": 767,
      "google dork: inurl:": 768,
      "ute ": 769,
      "AME": 770,
      "SQL?": 771,
      "e.html": 772,
      "version?": 773,
      "How do I find public Google Site": 774,
      "nc target.com 2": 775,
      "0.0.": 776,
      "ANY": 777,
      "behavior?": 778,
      "How do I scan for ": 779,
      "anguag": 780,
      "links?": 781,
      "SNMP ": 782,
      "json": 783,
      "rame-": 784,
      " direc": 785,
      "SSL cer": 786,
      "' page.html": 787,
      "-Cooki": 788,
      "Set-Cooki": 789,
      "a domain?": 790,
      "breach": 791,
      " dashboards?": 792,
      "How do I identify ": 793,
      "endpoints?": 794,
      "exploit": 795,
      "How do I extract metadata": 796,
      "google dork: site:sites": 797,
      " /": 798,
      " 1": 799,
      " us": 800,
      " example.com": 801,
      " email": 802,
      " version?": 803,
      " links?": 804,
      "%{": 805,
      "-Z": 806,
      "-z": 807,
      "04": 808,
      "2 <target>": 809,
      "2c -": 810,
      "200 <target>": 811,
      "52": 812,
      "9 target.com": 813,
      "AP ": 814,
      "A-Z": 815,
      "DB": 816,
      "DB?": 817,
      "ET": 818,
      "For": 819,
      "Hub": 820,
      "LD": 821,
      "Lo": 822,
      "Lin": 823,
      "MX": 824,
      "MSS": 825,
      "NS ": 826,
      "OST": 827,
      "SO": 828,
      "TR": 829,
      "TIO": 830,
      "VN": 831,
      "Web": 832,
      "[^": 833,
      "[A-Z": 834,
      "\\.": 835,
      "_s": 836,
      "aw": 837,
      "a-z": 838,
      "br": 839,
      "by": 840,
      "bit": 841,
      "back": 842,
      "ct": 843,
      "cum": 844,
      "cip": 845,
      "cach": 846,
      "dn": 847,
      "dres": 848,
      "e\"": 849,
      "ee": 850,
      "ech": 851,
      "fac": 852,
      "g?": 853,
      "go": 854,
      "hi": 855,
      "her": 856,
      "hat": 857,
      "ift": 858,
      "ke ": 859,
      "k -v": 860,
      "la": 861,
      "lar": 862,
      "lat": 863,
      "languag": 864,
      "ms?": 865,
      "ms ": 866,
      "non": 867,
      "oki": 868,
      "p-": 869,
      "p.": 870,
      "pe ": 871,
      "par": 872,
      "ps?": 873,
      "set": 874,
      "sub": 875,
      "s://": 876,
      "smb": 877,
      "t?": 878,
      "tal": 879,
      "title:\"": 880,
      "udf": 881,
      "v/": 882,
      "ve ": 883,
      "vul": 884,
      "wal": 885,
      "w '": 886,
      "what": 887,
      "zon": 888,
      "}'": 889,
      " docum": 890,
      "How c": 891,
      "How do I": 892,
      "cooki": 893,
      "err": 894,
      "ernet": 895,
      "er_ip": 896,
      "e or ": 897,
      "comm": 898,
      "ets ": 899,
      "entr": 900,
      "exift": 901,
      "redirect ": 902,
      "ite ": 903,
      " se": 904,
      " so": 905,
      " server": 906,
      " servic": 907,
      "ools": 908,
      "attack": 909,
      ".com or ": 910,
      ".com \"company\"": 911,
      "ecur": 912,
      "ection": 913,
      "s -": 914,
      "s an": 915,
      "s li": 916,
      " -p ": 917,
      "and": 918,
      "an I ": 919,
      "anal": 920,
      "acle ": 921,
      "ubernet": 922,
      "How do I enumerate open": 923,
      "How do I enumerate HTTP ": 924,
      "How do I enumerate SM": 925,
      "How do I enumerate NF": 926,
      "How do I enumerate Do": 927,
      "How do I find login": 928,
      "How do I extract usernam": 929,
      "google dork: site:d": 930,
      " a sub": 931,
      "dicat": 932,
      "https://": 933,
      "stgre": 934,
      "ilt": 935,
      "curl -X ": 936,
      "loit ": 937,
      "loudf": 938,
      "se?": 939,
      "How do I fingerprint HTTP ": 940,
      "HTML": 941,
      " po": 942,
      " past": 943,
      "curl -I --": 944,
      "sploit ": 945,
      "tifi": 946,
      "pem": 947,
      "ssion": 948,
      "cord": 949,
      " repos?": 950,
      "via ": 951,
      "vider": 952,
      "How do I check for open Gra": 953,
      "ebin": 954,
      " inter": 955,
      "How do I find public Google C": 956,
      "es from ": 957,
      "of a site?": 958,
      "nmap -p 21": 959,
      "nmap -p 204": 960,
      "nmap -p 16": 961,
      "nmap -p 143": 962,
      "nmap -p 152": 963,
      "sslscan": 964,
      "How do I check for exposed .bak.": 965,
      "bash": 966,
      "linux": 967,
      "nmap -p 56": 968,
      "nmap -p 543": 969,
      "8.8": 970,
      "API ": 971,
      "ed-": 972,
      "work": 973,
      "How do I extract the HTTP Content-": 974,
      "domain>": 975,
      "built": 976,
      "nerab": 977,
      "php": 978,
      "quat": 979,
      "quest": 980,
      "How do I fingerprint the TLS ": 981,
      " type?": 982,
      ".io": 983,
      "mpwal": 984,
      "google dork: intitle:\"": 985,
      "cript ": 986,
      "ed by": 987,
      "total": 988,
      " defa": 989,
      "ext:": 990,
      "metho": 991,
      "code ": 992,
      "nmap -p 3389 <target>": 993,
      "nmap -p 3306": 994,
      "TLS cip": 995,
      "page?": 996,
      "s for a domain?": 997,
      "way": 998,
      "readshe": 999,
      " subdomain": 1000,
      "curl -I http://target.com | grep -i ": 1001,
      "curl -I http://target.com | grep -i cach": 1002,
      "8.8.8.8": 1003,
      "buckets?": 1004,
      "Jenkins": 1005,
      "/24": 1006,
      "GitHub": 1007,
      "Postgre": 1008,
      "credential": 1009,
      "dev/": 1010,
      "ign": 1011,
      "snmpwal": 1012,
      "yze header": 1013,
      "index": 1014,
      "How do I enumerate Kubernet": 1015,
      "HTTP server": 1016,
      "archives?": 1017,
      "How do I check if a domain is ": 1018,
      "google dork: site:example.com inurl:bak.": 1019,
      " support?": 1020,
      "OPTIO": 1021,
      "Oracle ": 1022,
      "licy": 1023,
      "truct": 1024,
      "contac": 1025,
      "How do I extract the CSP ": 1026,
      "query": 1027,
      ".io or ": 1028,
      "s from a webpage?": 1029,
      " director": 1030,
      "How do I identify the ": 1031,
      "google dork: site:sites.google.com ": 1032,
      "2c -c ": 1033,
      "Linux": 1034,
      "MSSQL": 1035,
      "k -v2c -c ": 1036,
      "vulnerab": 1037,
      "w '%{": 1038,
      "whatweb": 1039,
      " document": 1040,
      "How can I ": 1041,
      "er_ip>": 1042,
      "entries?": 1043,
      "exiftool": 1044,
      "attacker_ip>": 1045,
      "ecurity": 1046,
      "s and ": 1047,
      "s like ": 1048,
      "analyze header": 1049,
      "How do I enumerate Docker": 1050,
      " a subnet?": 1051,
      "loudflar": 1052,
      "tificat": 1053,
      " defaul": 1054,
      "TLS cipher": 1055,
      "snmpwalk -v2c -c ": 1056,
      "tructure": 1057,
      " >": 1058,
      " S": 1059,
      " x": 1060,
      " ma": 1061,
      " //": 1062,
      " public ": 1063,
      " | grep ": 1064,
      " \"company\"": 1065,
      " up": 1066,
      " key": 1067,
      " boards?": 1068,
      " banner?": 1069,
      " config files?": 1070,
      " ker": 1071,
      " endpoints?": 1072,
      " cooki": 1073,
      " 8.8.8.8": 1074,
      " archives?": 1075,
      "\":\"": 1076,
      "\"]+": 1077,
      "\"query": 1078,
      "'m": 1079,
      ",3}": 1080,
      "-A": 1081,
      "-M": 1082,
      "-s": 1083,
      "-re": 1084,
      "-sc": 1085,
      "-Po": 1086,
      "-]+": 1087,
      "-[0-9]{": 1088,
      ".1": 1089,
      "._": 1090,
      ".s": 1091,
      ".t": 1092,
      ".or": 1093,
      ".jp": 1094,
      "/<": 1095,
      "/dev/": 1096,
      "01": 1097,
      "02": 1098,
      "09": 1099,
      "0/24": 1100,
      "1 target.com": 1101,
      "1,3}": 1102,
      "2.1": 1103,
      "3 target.com": 1104,
      "49": 1105,
      "4 <target>": 1106,
      "4linux": 1107,
      "5 target.com": 1108,
      "50 <target>": 1109,
      "509": 1110,
      "68.": 1111,
      "637": 1112,
      "700": 1113,
      "701": 1114,
      "92.1": 1115,
      "@example.com": 1116,
      "@ns": 1117,
      "AR": 1118,
      "Ac": 1119,
      "A records?": 1120,
      "ASN": 1121,
      "All": 1122,
      "Bos": 1123,
      "B shar": 1124,
      "CE": 1125,
      "CN": 1126,
      "CV": 1127,
      "Cit": 1128,
      "CAA": 1129,
      "Cloudflar": 1130,
      "DF": 1131,
      "DS": 1132,
      "Di": 1133,
      "Driv": 1134,
      "El": 1135,
      "Frame-": 1136,
      "GP": 1137,
      "HI": 1138,
      "ID": 1139,
      "Jav": 1140,
      "JBos": 1141,
      "LO": 1142,
      "Len": 1143,
      "Last": 1144,
      "L -v": 1145,
      "L //": 1146,
      "MQ": 1147,
      "Mon": 1148,
      "NS": 1149,
      "NAP": 1150,
      "Op": 1151,
      "Pow": 1152,
      "P/2": 1153,
      "POST": 1154,
      "PDF": 1155,
      "RP": 1156,
      "RT": 1157,
      "RV": 1158,
      "Ret": 1159,
      "Rab": 1160,
      "Redi": 1161,
      "Sph": 1162,
      "SAM": 1163,
      "Stor": 1164,
      "SAP?": 1165,
      "Script ": 1166,
      "Security": 1167,
      "SRV": 1168,
      "To": 1169,
      "TTL": 1170,
      "Trello": 1171,
      "Var": 1172,
      "Wind": 1173,
      "Zoo": 1174,
      "\\b": 1175,
      "__s": 1176,
      "_total": 1177,
      "_Stor": 1178,
      "a?": 1179,
      "ale": 1180,
      "ail": 1181,
      "a re": 1182,
      "avicon": 1183,
      "aked ": 1184,
      "aquat": 1185,
      "aScript ": 1186,
      "bin": 1187,
      "c>": 1188,
      "ci": 1189,
      "car": 1190,
      "cs ": 1191,
      "cam": 1192,
      "ces": 1193,
      "cep": 1194,
      "csv": 1195,
      "d?": 1196,
      "db": 1197,
      "dar": 1198,
      "dra": 1199,
      "eet": 1200,
      "emp": 1201,
      "es on a site?": 1202,
      "e_total": 1203,
      "fr": 1204,
      "fan": 1205,
      "file": 1206,
      "fter": 1207,
      "ferr": 1208,
      "gma": 1209,
      "git": 1210,
      "gth": 1211,
      "gic": 1212,
      "ge.": 1213,
      "gis": 1214,
      "hy": 1215,
      "hun": 1216,
      "hist": 1217,
      "hand": 1218,
      "ik": 1219,
      "im": 1220,
      "ix": 1221,
      "ira": 1222,
      "ibana": 1223,
      "l -": 1224,
      "lass": 1225,
      "lder": 1226,
      "mo": 1227,
      "mar": 1228,
      "mic": 1229,
      "mis": 1230,
      "medi": 1231,
      "mcat?": 1232,
      "mdb": 1233,
      "num": 1234,
      "nal": 1235,
      "nel": 1236,
      "nul": 1237,
      "nc -": 1238,
      "ndar": 1239,
      "odi": 1240,
      "p?": 1241,
      "py": 1242,
      "pres": 1243,
      "ry": 1244,
      "rar": 1245,
      "roo": 1246,
      "rop": 1247,
      "run": 1248,
      "ript ": 1249,
      "rix": 1250,
      "sd": 1251,
      "sco": 1252,
      "sit": 1253,
      "s.com ": 1254,
      "sof": 1255,
      "structure": 1256,
      "tc": 1257,
      "tl": 1258,
      "tat": 1259,
      "trello": 1260,
      "temp": 1261,
      "u?": 1262,
      "up ": 1263,
      "us ": 1264,
      "uth": 1265,
      "udi": 1266,
      "v6": 1267,
      "val": 1268,
      "vSph": 1269,
      "xls": 1270,
      "xfr": 1271,
      "yam": 1272,
      "{\"query": 1273,
      "{__s": 1274,
      "}\"": 1275,
      " det": 1276,
      "ows?": 1277,
      "How do I use ": 1278,
      "ini": 1279,
      "indicat": 1280,
      "ers": 1281,
      "ere?": 1282,
      "erber": 1283,
      "ered-": 1284,
      "e fo": 1285,
      "e yo": 1286,
      "e of a site?": 1287,
      "e num": 1288,
      "ets?": 1289,
      "arset": 1290,
      ".com\"": 1291,
      "oric": 1292,
      "leaked ": 1293,
      "end ": 1294,
      "ensit": 1295,
      "exist": 1296,
      "rep": 1297,
      "resh": 1298,
      "records": 1299,
      "ression": 1300,
      "tar.g": 1301,
      "map.": 1302,
      "mage.": 1303,
      " fee": 1304,
      " favicon": 1305,
      "ition": 1306,
      "ities?": 1307,
      " su": 1308,
      " sam": 1309,
      " sensit": 1310,
      "ate": 1311,
      "d DNS ": 1312,
      "chema": 1313,
      "chain": 1314,
      "charset": 1315,
      "ec example.com": 1316,
      "one num": 1317,
      "s --": 1318,
      "am ": 1319,
      "amboar": 1320,
      " -d": 1321,
      " -i": 1322,
      " -d ": 1323,
      "anel": 1324,
      "live ": 1325,
      "ur ": 1326,
      "nmap?": 1327,
      "tro": 1328,
      "enum4linux": 1329,
      "nmap -sn": 1330,
      "nmap -p-": 1331,
      "nmap --sc": 1332,
      "How do I enumerate A": 1333,
      "How do I enumerate public ": 1334,
      "How do I enumerate DNS ": 1335,
      "How do I enumerate user": 1336,
      "How do I enumerate SNM": 1337,
      "How do I enumerate Jenkin": 1338,
      "How do I enumerate RD": 1339,
      "How do I enumerate FT": 1340,
      "How do I enumerate My": 1341,
      "How do I enumerate Tel": 1342,
      "How do I enumerate LD": 1343,
      "How do I enumerate VN": 1344,
      "How do I enumerate Web": 1345,
      "How do I enumerate Postgre": 1346,
      "How do I enumerate Oracle ": 1347,
      "How do I enumerate MSSQL": 1348,
      "How do I enumerate Cit": 1349,
      "How do I enumerate JBos": 1350,
      "How do I enumerate SAP?": 1351,
      "How do I enumerate To": 1352,
      "How do I enumerate vSph": 1353,
      "url:\"": 1354,
      "checker": 1355,
      "How do I find open": 1356,
      "How do I find the HTTP ": 1357,
      "How do I find email": 1358,
      "How do I find leaked ": 1359,
      " <user": 1360,
      " <domain>": 1361,
      " <attacker_ip>": 1362,
      "How do I check for": 1363,
      "nmap -p 44": 1364,
      "nmap -p 443": 1365,
      "nmap -p 637": 1366,
      "nmap -p 700": 1367,
      "thon": 1368,
      "thread": 1369,
      "P records?": 1370,
      "P ports?": 1371,
      "How do I extract link": 1372,
      "using ": 1373,
      "google dork: site:c": 1374,
      "google dork: site:j": 1375,
      " all": 1376,
      " audi": 1377,
      " axfr": 1378,
      "disco": 1379,
      "://<target>": 1380,
      "http2": 1381,
      "stanc": 1382,
      "ilities?": 1383,
      "curl -o ": 1384,
      "curl -L -v": 1385,
      "addres": 1386,
      "lock": 1387,
      "loc>": 1388,
      "ses?": 1389,
      "g | grep ": 1390,
      "How do I find public J": 1391,
      "How do I fingerprint SM": 1392,
      "DNSS": 1393,
      "DNS?": 1394,
      "DNAME": 1395,
      " ph": 1396,
      " pho": 1397,
      " panel": 1398,
      "HTTP/2": 1399,
      "hello": 1400,
      "curl -I http://target.com": 1401,
      "spos": 1402,
      "spreadshe": 1403,
      "all": 1404,
      "all ": 1405,
      "roup": 1406,
      "route ": 1407,
      "rosof": 1408,
      "ssec example.com": 1409,
      " record": 1410,
      "How do I check for open ports on": 1411,
      " target.com?": 1412,
      "compres": 1413,
      "compression": 1414,
      "DNS records": 1415,
      "use ssl": 1416,
      "use built": 1417,
      "use hun": 1418,
      "vir": 1419,
      "vide": 1420,
      "verse ": 1421,
      "headers for ": 1422,
      "How do I check for open RD": 1423,
      "age ": 1424,
      "s on a subnet?": 1425,
      "google dork: site:example.com filetype:xml": 1426,
      "google dork: site:example.com filetype:json": 1427,
      "short ": 1428,
      "curl -I http://target.com | grep Server": 1429,
      "curl -I http://target.com | grep Set-Cooki": 1430,
      " info": 1431,
      " instanc": 1432,
      "with sensit": 1433,
      "How do I find public Google Do": 1434,
      "How do I find public Google For": 1435,
      "How do I find public Google Driv": 1436,
      "dig example.com | grep -i": 1437,
      "dig example.com TXT": 1438,
      "4444": 1439,
      "ipinfo": 1440,
      "entation": 1441,
      "user@example.com": 1442,
      " portal": 1443,
      " image.": 1444,
      "netcat?": 1445,
      "network": 1446,
      "scra": 1447,
      "search ": 1448,
      "search past": 1449,
      "searchsploit ": 1450,
      "webcam": 1451,
      "nmap -p 21 <target>": 1452,
      "nmap -p 237": 1453,
      "nmap -p 23 <target>": 1454,
      "nmap -p 2701": 1455,
      "hat ": 1456,
      "hash": 1457,
      "hashe": 1458,
      "nmap -p 102": 1459,
      "nmap -p 149": 1460,
      ".google.com intext:\"": 1461,
      "response?": 1462,
      "box": 1463,
      "cation": 1464,
      "linked ": 1465,
      "nmap -p 389 <target>": 1466,
      "nmap -p 3200 <target>": 1467,
      " a host": 1468,
      "How do I find public .p": 1469,
      "APL": 1470,
      "ive ": 1471,
      "word": 1472,
      "y header?": 1473,
      "1.1": 1474,
      "1.0/24": 1475,
      "IP look": 1476,
      "IP addres": 1477,
      "phQL": 1478,
      "How do I fingerprint the HTTP server": 1479,
      "docx": 1480,
      " tools": 1481,
      " ttl": 1482,
      ".ico": 1483,
      "P server": 1484,
      "icsearch": 1485,
      "ing pro": 1486,
      "ing headers?": 1487,
      "How do I check if a": 1488,
      "google dork: inurl:\"": 1489,
      "configure": 1490,
      " of\"": 1491,
      " of a domain?": 1492,
      " of an ": 1493,
      "AAAA": 1494,
      "asticsearch": 1495,
      "site?": 1496,
      "to.jp": 1497,
      "ter.io or ": 1498,
      " dev": 1499,
      "ing?": 1500,
      "ings?": 1501,
      "dig axfr": 1502,
      "prox": 1503,
      "openssl x": 1504,
      "SQL ports?": 1505,
      "estors": 1506,
      "time_total": 1507,
      "How do I find public Google She": 1508,
      "client -L //": 1509,
      "nc target.com 1": 1510,
      "inspect response ": 1511,
      " IP": 1512,
      "0.5": 1513,
      "CDN pro": 1514,
      "NFO": 1515,
      "api": 1516,
      "es with ": 1517,
      "forms ": 1518,
      "nolog": 1519,
      "no-s": 1520,
      " databa": 1521,
      "ancestors": 1522,
      "google dork: site:docs.google.com/spreadshe": 1523,
      "google dork: site:docs.google.com/forms ": 1524,
      " user@": 1525,
      "3}-[0-9]{": 1526,
      "X-Frame-": 1527,
      "X-Pow": 1528,
      "favicon": 1529,
      "kibana": 1530,
      "passwords": 1531,
      "your ": 1532,
      "yze or ": 1533,
      "info?": 1534,
      "How do I find domain": 1535,
      "How do I find subdomain": 1536,
      "HTTP stat": 1537,
      "s on Wind": 1538,
      "SSHF": 1539,
      " an SSL cer": 1540,
      "How do I check if a domain ha": 1541,
      "dig domain.com ANY": 1542,
      "whois or ": 1543,
      "[0-9]{1,3}": 1544,
      "How do I search for public ": 1545,
      " hash": 1546,
      ".git": 1547,
      "3 buckets?": 1548,
      "FTP server": 1549,
      "Telnet": 1550,
      "URI": 1551,
      "ip a": 1552,
      "o.mp3": 1553,
      "o.mp4": 1554,
      "rive": 1555,
      "svn": 1556,
      "t.sh": 1557,
      "tesla": 1558,
      " dump ": 1559,
      " dumps?": 1560,
      "env files?": 1561,
      "use d": 1562,
      " records for ": 1563,
      "dig +dn": 1564,
      "dig +short ": 1565,
      "google dork: site:example.com filetype:pdf": 1566,
      "keeper": 1567,
      "nmap -p 5900 <target>": 1568,
      "1.1.1.1": 1569,
      " for domain.com?": 1570,
      "google dork: inurl:admin": 1571,
      "How do I find public Google Sites ": 1572,
      "How do I find public Google Sites with ": 1573,
      "0.0.0.5": 1574,
      "rame-ancestors": 1575,
      "Set-Cookie ": 1576,
      "How do I extract metadata from": 1577,
      "How do I extract metadata from ": 1578,
      " 192.1": 1579,
      "AP banner?": 1580,
      "DB ports?": 1581,
      "Logic": 1582,
      "NS http://target.com ": 1583,
      "TR records?": 1584,
      "[A-Za-z": 1585,
      "bitMQ": 1586,
      "backend ": 1587,
      "echnolog": 1588,
      "faces?": 1589,
      "nonce ": 1590,
      "pe HTML": 1591,
      "smbclient -L //": 1592,
      "How do I dump ": 1593,
      "redirect chain": 1594,
      "ite us": 1595,
      " search": 1596,
      " soci": 1597,
      " services?": 1598,
      "ection?": 1599,
      "s -w '%{": 1600,
      "How do I enumerate HTTP headers?": 1601,
      "How do I enumerate SMB?": 1602,
      "How do I enumerate NFS?": 1603,
      "How do I extract usernames from ": 1604,
      "google dork: site:drive": 1605,
      "https://target.com": 1606,
      "curl -X OPTIO": 1607,
      "curl -I --compres": 1608,
      "How do I check for open GraphQL": 1609,
      " interfaces?": 1610,
      "nmap -p 218": 1611,
      "nmap -p 2049 <target>": 1612,
      "nmap -p 161 <target>": 1613,
      "nmap -p 1433 <target>": 1614,
      "nmap -p 1521 <target>": 1615,
      "sslscan target.com": 1616,
      "nmap -p 567": 1617,
      "nmap -p 5432 <target>": 1618,
      "ed by a site?": 1619,
      "ext:conf": 1620,
      "nmap -p 3306 <target>": 1621,
      "curl -I http://target.com | grep -i cache": 1622,
      "Jenkins dashboards?": 1623,
      "ign-re": 1624,
      "index of\"": 1625,
      "How do I enumerate Kubernetes?": 1626,
      "contact": 1627,
      " directories?": 1628,
      "Linux?": 1629,
      "vulnerabilities?": 1630,
      "whatweb target.com": 1631,
      "How do I enumerate Docker?": 1632,
      "tificates?": 1633,
      " default ": 1634,
      "TLS cipher su": 1635,
      "snmpwalk -v2c -c public ": 1636,
      " keywords": 1637,
      " kernel": 1638,
      "\":\"{__s": 1639,
      "-After": 1640,
      "-Modi": 1641,
      "-Policy": 1642,
      ".tx": 1643,
      "/dev/nul": 1644,
      "509 -": 1645,
      "68.1.0/24": 1646,
      "@ns1.": 1647,
      "Accep": 1648,
      "Allow": 1649,
      "CERT": 1650,
      "CNAME": 1651,
      "CVE": 1652,
      "Cloudflare?": 1653,
      "DS_Stor": 1654,
      "Dispos": 1655,
      "Elasticsearch": 1656,
      "GPS": 1657,
      "HINFO": 1658,
      "JavaScript ": 1659,
      "LOC": 1660,
      "Length": 1661,
      "Last-Modi": 1662,
      "Mongo": 1663,
      "Option": 1664,
      "Retry": 1665,
      "RabbitMQ": 1666,
      "Zookeeper": 1667,
      "alendar": 1668,
      "aquaton": 1669,
      "dra -": 1670,
      "files?": 1671,
      "ferrer": 1672,
      "gmail": 1673,
      "gistr": 1674,
      "hydra -": 1675,
      "historic": 1676,
      "l -s -w '%{": 1677,
      "lassroo": 1678,
      "microsof": 1679,
      "misconfigure": 1680,
      "python": 1681,
      "presentation": 1682,
      "ropbox": 1683,
      "rix?": 1684,
      "structure?": 1685,
      "templat": 1686,
      "us code ": 1687,
      "valu": 1688,
      "{\"query\":\"{__s": 1689,
      "ered-B": 1690,
      "e folder": 1691,
      "e you?": 1692,
      "tar.gz": 1693,
      "map.xml": 1694,
      " feeds?": 1695,
      " favicon.ico": 1696,
      "chema}\"": 1697,
      "one number": 1698,
      "nmap --script ": 1699,
      "How do I enumerate SNMP?": 1700,
      "How do I enumerate Jenkins?": 1701,
      "How do I enumerate RDP?": 1702,
      "How do I enumerate FTP?": 1703,
      "How do I enumerate MySQL?": 1704,
      "How do I enumerate Telnet?": 1705,
      "How do I enumerate LDAP?": 1706,
      "How do I enumerate VNC?": 1707,
      "How do I enumerate WebLogic": 1708,
      "How do I enumerate PostgreSQL?": 1709,
      "How do I enumerate Oracle DB?": 1710,
      "How do I enumerate MSSQL?": 1711,
      "How do I enumerate Citrix?": 1712,
      "How do I enumerate JBoss?": 1713,
      "How do I enumerate Tomcat?": 1714,
      "How do I enumerate vSphere?": 1715,
      " <user>": 1716,
      "nmap -p 445 <target>": 1717,
      "nmap -p 443 <target>": 1718,
      "nmap -p 7001 <target>": 1719,
      "threads?": 1720,
      " audio.mp3": 1721,
      "discover": 1722,
      "curl -o /dev/nul": 1723,
      "curl -L -v http://target.com": 1724,
      "DNSSE": 1725,
      " photo.jp": 1726,
      " panels?": 1727,
      "HTTP/2 support?": 1728,
      "use sslyze or ": 1729,
      "use builtwith": 1730,
      "use hunter.io or ": 1731,
      "video.mp4": 1732,
      "headers for CDN": 1733,
      "How do I check for open RDP ports?": 1734,
      "curl -I http://target.com | grep Set-Cookie": 1735,
      " instances?": 1736,
      "with sensitive ": 1737,
      "How do I find public Google Drive folder": 1738,
      "dig example.com | grep -i ttl": 1739,
      "ipinfo.io": 1740,
      " image.jp": 1741,
      "network interfaces?": 1742,
      "scrape HTML": 1743,
      "search pastebin": 1744,
      "nmap -p 2375 <target>": 1745,
      "nmap -p 27017": 1746,
      "nmap -p 10250 <target>": 1747,
      "nmap -p 1494 <target>": 1748,
      " a host?": 1749,
      "openssl x509 -": 1750,
      "CDN provider": 1751,
      "no-sign-re": 1752,
      "google dork: site:docs.google.com/spreadsheets ": 1753,
      "X-Frame-Option": 1754,
      "X-Powered-B": 1755,
      "favicon hash": 1756,
      "HTTP status code ": 1757,
      "s on Windows?": 1758,
      " an SSL cert?": 1759,
      "How do I check if a domain has ": 1760,
      "dig +dnssec example.com": 1761,
      " 192.168.1.0/24": 1762,
      "[A-Za-z0-9": 1763,
      " social ": 1764,
      "curl -I --compressed ": 1765,
      "Disposition": 1766,
      "Last-Modifi": 1767,
      "Retry-After": 1768,
      "lassroom": 1769,
      "microsoft": 1770,
      "{\"query\":\"{__schema}\"": 1771,
      "How do I enumerate WebLogic?": 1772,
      "curl -o /dev/null -s -w '%{": 1773,
      "use hunter.io or email": 1774,
      "scrape HTML and ": 1775,
      "no-sign-request": 1776,
      " 0": 1777,
      " R": 1778,
      " g": 1779,
      " |": 1780,
      " ~": 1781,
      " ow": 1782,
      " ar": 1783,
      " or": 1784,
      " target": 1785,
      " on": 1786,
      " the ": 1787,
      " | ": 1788,
      " target.com ": 1789,
      " example.com ": 1790,
      " with": 1791,
      " log": 1792,
      " | grep -": 1793,
      " IP ": 1794,
      " ls": 1795,
      " cod": 1796,
      " look": 1797,
      " github": 1798,
      " cont": 1799,
      " exploit": 1800,
      " languag": 1801,
      " comm": 1802,
      " API ": 1803,
      " POST": 1804,
      " hand": 1805,
      " run": 1806,
      " compression": 1807,
      " 4444": 1808,
      " ext:conf": 1809,
      " contact": 1810,
      " Linux?": 1811,
      " vulnerabilities?": 1812,
      " GPS": 1813,
      " Mongo": 1814,
      " valu": 1815,
      " network interfaces?": 1816,
      "\"re": 1817,
      "\" site:": 1818,
      "\"' page.html": 1819,
      "\"[^": 1820,
      "\" \"company\"": 1821,
      "\".git": 1822,
      "\"templat": 1823,
      "\" languag": 1824,
      "%+": 1825,
      "&1": 1826,
      "& /": 1827,
      "' http://target.com": 1828,
      "' /": 1829,
      "' >": 1830,
      "'{\"query\":\"{__schema}\"": 1831,
      "([0-9]{1,3}": 1832,
      "){": 1833,
      "*.": 1834,
      "+trac": 1835,
      ",}": 1836,
      ", an": 1837,
      ", I": 1838,
      ", and ": 1839,
      ", cooki": 1840,
      ", g": 1841,
      "-1": 1842,
      "-6": 1843,
      "-T": 1844,
      "-a": 1845,
      "-b": 1846,
      "-i": 1847,
      "-x": 1848,
      "-ur": 1849,
      "-sp": 1850,
      "-user": 1851,
      "-search": 1852,
      "-for": 1853,
      "-nam": 1854,
      "-os": 1855,
      "-X ": 1856,
      "-ID": 1857,
      "-Security": 1858,
      "-http2": 1859,
      "-discover": 1860,
      ".a": 1861,
      ".p": 1862,
      ".example.com ": 1863,
      ".bash": 1864,
      ".php": 1865,
      ".-]+": 1866,
      ".svn": 1867,
      ".DS_Stor": 1868,
      "/s": 1869,
      "/et": 1870,
      "/re": 1871,
      "/log": 1872,
      "/config": 1873,
      "/pass": 1874,
      "/config files?": 1875,
      "/json": 1876,
      "/bash": 1877,
      "/8.8.8.8": 1878,
      "/index": 1879,
      "/TLS cipher": 1880,
      "/bin": 1881,
      "/loc>": 1882,
      "/4444": 1883,
      "/kibana": 1884,
      "/.bash": 1885,
      "0 target.com": 1886,
      "01 <target>": 1887,
      "10": 1888,
      "137": 1889,
      "10.0.0.5": 1890,
      "1-1": 1891,
      "22": 1892,
      "2 <attacker_ip>": 1893,
      "2,}": 1894,
      "38": 1895,
      "3r": 1896,
      "3://": 1897,
      "35 target.com": 1898,
      "3.a": 1899,
      "4}": 1900,
      "4 target.com": 1901,
      "55": 1902,
      "6 -": 1903,
      "8 target.com": 1904,
      "89 target.com": 1905,
      "84 target.com": 1906,
      "9200 <target>": 1907,
      "::": 1908,
      ": \"": 1909,
      ":python": 1910,
      "; s": 1911,
      "; run": 1912,
      "<s": 1913,
      "<url>": 1914,
      "<bucket": 1915,
      "<]+": 1916,
      "<pass": 1917,
      "<domain>": 1918,
      "<loc>": 1919,
      "<CVE": 1920,
      "</loc>": 1921,
      "=e": 1922,
      "=\"[^": 1923,
      "> s": 1924,
      "> --": 1925,
      ">/24": 1926,
      ">://<target>": 1927,
      "> ~": 1928,
      ">&1": 1929,
      ">; s": 1930,
      "@company": 1931,
      "@[A-Za-z0-9": 1932,
      "AF": 1933,
      "AI": 1934,
      "Ad": 1935,
      "AI ": 1936,
      "Anal": 1937,
      "Auth": 1938,
      "A cod": 1939,
      "Bit": 1940,
      "Bro": 1941,
      "BIO": 1942,
      "B version?": 1943,
      "CM": 1944,
      "Co": 1945,
      "Cr": 1946,
      "CP ": 1947,
      "C ports?": 1948,
      "CAN": 1949,
      "C info": 1950,
      "C services?": 1951,
      "DM": 1952,
      "DO": 1953,
      "Dash": 1954,
      "Dropbox": 1955,
      "EX": 1956,
      "En": 1957,
      "Ex": 1958,
      "For ": 1959,
      "F records": 1960,
      "F GPS": 1961,
      "GET": 1962,
      "Group": 1963,
      "GCP ": 1964,
      "HK": 1965,
      "HO": 1966,
      "Har": 1967,
      "HST": 1968,
      "HOST": 1969,
      "IM": 1970,
      "IP": 1971,
      "IS ": 1972,
      "IAM": 1973,
      "IP?": 1974,
      "I'm": 1975,
      "ICAN": 1976,
      "IF GPS": 1977,
      "JS ": 1978,
      "Jamboar": 1979,
      "Kee": 1980,
      "Kibana": 1981,
      "Kerber": 1982,
      "LM": 1983,
      "Lab": 1984,
      "L user": 1985,
      "Languag": 1986,
      "Ls like ": 1987,
      "MP": 1988,
      "Met": 1989,
      "M s": 1990,
      "Map": 1991,
      "Meet": 1992,
      "N\"": 1993,
      "No": 1994,
      "Net": 1995,
      "Nam": 1996,
      "N files on a domain?": 1997,
      "N look": 1998,
      "OS ": 1999,
      "O target.com": 2000,
      "OCS": 2001,
      "P\"": 2002,
      "P f": 2003,
      "P <": 2004,
      "Pro": 2005,
      "Pres": 2006,
      "POP": 2007,
      "PTR records?": 2008,
      "PF records": 2009,
      "Re": 2010,
      "RSS": 2011,
      "RP records?": 2012,
      "So": 2013,
      "S <target>": 2014,
      "Sho": 2015,
      "SIP ": 2016,
      "SAN": 2017,
      "S shar": 2018,
      "S3 buckets?": 2019,
      "S services?": 2020,
      "SPF records": 2021,
      "Ty": 2022,
      "TP ": 2023,
      "Type": 2024,
      "UA cod": 2025,
      "Wi": 2026,
      "Wor": 2027,
      "WS ": 2028,
      "WAF": 2029,
      "WHO": 2030,
      "XML": 2031,
      "XMP": 2032,
      "XP\"": 2033,
      "[Jenkins": 2034,
      "\\n": 2035,
      "\\\"]+": 2036,
      "\\SAM": 2037,
      "]\"": 2038,
      "_d": 2039,
      "_key": 2040,
      "_cod": 2041,
      "ay": 2042,
      "az": 2043,
      "at ": 2044,
      "ad ": 2045,
      "a <target>": 2046,
      "ag ": 2047,
      "ake": 2048,
      "at -": 2049,
      "aux": 2050,
      "a dashboards?": 2051,
      "asploit ": 2052,
      "auth": 2053,
      "a::": 2054,
      "bl": 2055,
      "bat": 2056,
      "bus": 2057,
      "bst": 2058,
      "bal": 2059,
      "bro": 2060,
      "bes": 2061,
      "b <url>": 2062,
      "block": 2063,
      "ce": 2064,
      "cer": 2065,
      "cs?": 2066,
      "can": 2067,
      "c <target>": 2068,
      "cal": 2069,
      "cinfo": 2070,
      "cloudflar": 2071,
      "c.example.com ": 2072,
      "c/pass": 2073,
      "cat ": 2074,
      "du": 2075,
      "dow": 2076,
      "d s": 2077,
      "dfin": 2078,
      "dum": 2079,
      "dan": 2080,
      "des?": 2081,
      "dy ": 2082,
      "dden": 2083,
      "d.google.com \"company\"": 2084,
      "ddres": 2085,
      "d.com or ": 2086,
      "ded-": 2087,
      "d subdomain": 2088,
      "d document": 2089,
      "dcar": 2090,
      "ds --": 2091,
      "de you?": 2092,
      "d\" \"company\"": 2093,
      "dPres": 2094,
      "eo": 2095,
      "ew": 2096,
      "esp": 2097,
      "es on": 2098,
      "e}'": 2099,
      "ework": 2100,
      "e det": 2101,
      "e:python": 2102,
      "e>://<target>": 2103,
      "eHar": 2104,
      "ff": 2105,
      "fl": 2106,
      "fw": 2107,
      "fy": 2108,
      "fil": 2109,
      "fcon": 2110,
      "f target.com": 2111,
      "from": 2112,
      "fo ": 2113,
      "fram": 2114,
      "f or ": 2115,
      "fresh": 2116,
      "frame-ancestors": 2117,
      "f=\"[^": 2118,
      "gs": 2119,
      "g s": 2120,
      "gra": 2121,
      "git ": 2122,
      "gate": 2123,
      "group": 2124,
      "ges with ": 2125,
      "gNam": 2126,
      "geo": 2127,
      "h3": 2128,
      "how": 2129,
      "hin": 2130,
      "hre": 2131,
      "h <target>": 2132,
      "h -v": 2133,
      "h.or": 2134,
      "iq": 2135,
      "iz": 2136,
      "i -": 2137,
      "ial": 2138,
      "ivi": 2139,
      "ifi": 2140,
      "ibu": 2141,
      "ies ": 2142,
      "ies on a site?": 2143,
      "iam ": 2144,
      "ify": 2145,
      "jection?": 2146,
      "kub": 2147,
      "kurl": 2148,
      "king ": 2149,
      "klist": 2150,
      "lp": 2151,
      "late ": 2152,
      "lab": 2153,
      "lway": 2154,
      "l <user>": 2155,
      "mm": 2156,
      "ms": 2157,
      "my": 2158,
      "men": 2159,
      "ment": 2160,
      "mul": 2161,
      "ms on a site?": 2162,
      "meet": 2163,
      "mim": 2164,
      "noo": 2165,
      "nst": 2166,
      "nes": 2167,
      "nload": 2168,
      "nection": 2169,
      "nik": 2170,
      "ning pro": 2171,
      "nbst": 2172,
      "os ": 2173,
      "ole ": 2174,
      "oute ": 2175,
      "pt": 2176,
      "pex": 2177,
      "pt ": 2178,
      "ps ": 2179,
      "pst": 2180,
      "ple ": 2181,
      "pany": 2182,
      "pscan": 2183,
      "past": 2184,
      "pMy": 2185,
      "plat": 2186,
      "pps?": 2187,
      "preadshe": 2188,
      "p defaul": 2189,
      "p/<": 2190,
      "p/kibana": 2191,
      "pcinfo": 2192,
      "pdfin": 2193,
      "rc": 2194,
      "ret": 2195,
      "ron": 2196,
      "ran": 2197,
      "rss": 2198,
      "rang": 2199,
      "rite ": 2200,
      "rt.sh": 2201,
      "rb <url>": 2202,
      "rpcinfo": 2203,
      "ser": 2204,
      "s s": 2205,
      "sam": 2206,
      "slog": 2207,
      "server": 2208,
      "st -": 2209,
      "s.google.com \"company\"": 2210,
      "s shar": 2211,
      "s support": 2212,
      "squat": 2213,
      "security": 2214,
      "s.tx": 2215,
      "s, cooki": 2216,
      "s3.a": 2217,
      "sa::": 2218,
      "siz": 2219,
      "sole ": 2220,
      "tu": 2221,
      "ty": 2222,
      "t.com": 2223,
      "tex": 2224,
      "tli": 2225,
      "tes?": 2226,
      "tag": 2227,
      "ted": 2228,
      "tap": 2229,
      "tain": 2230,
      "tl ": 2231,
      "type?": 2232,
      "tools": 2233,
      "ts and ": 2234,
      "technolog": 2235,
      "t-T": 2236,
      "ug": 2237,
      "uch": 2238,
      "u <url>": 2239,
      "ue\"": 2240,
      "u <user>": 2241,
      "uf or ": 2242,
      "var": 2243,
      "ven": 2244,
      "vil": 2245,
      "vho": 2246,
      "ve?": 2247,
      "vest": 2248,
      "v target.com ": 2249,
      "wd": 2250,
      "war": 2251,
      "wil": 2252,
      "wss": 2253,
      "wc -": 2254,
      "wis": 2255,
      "what ": 2256,
      "wpscan": 2257,
      "write ": 2258,
      "xies?": 2259,
      "x 8.8.8.8": 2260,
      "yti": 2261,
      "y -p ": 2262,
      "ybro": 2263,
      "yslog": 2264,
      "zur": 2265,
      "zip": 2266,
      "zip ": 2267,
      "z se": 2268,
      "zv target.com ": 2269,
      "|a-z": 2270,
      "} p": 2271,
      "}\\n": 2272,
      " deb": 2273,
      " des": 2274,
      " dup": 2275,
      "I wa": 2276,
      "I records?": 2277,
      "I am ": 2278,
      "I https://target.com": 2279,
      "owmo": 2280,
      "owser": 2281,
      "How do I get": 2282,
      "How do I trac": 2283,
      "How do I main": 2284,
      "How do I vi": 2285,
      "How do I ver": 2286,
      "How do I es": 2287,
      "How do I look": 2288,
      "How do I cre": 2289,
      "How do I br": 2290,
      "ine": 2291,
      "inanc": 2292,
      "in cer": 2293,
      "indirect ": 2294,
      "in IP ": 2295,
      "col": 2296,
      "coun": 2297,
      "ers?": 2298,
      "er or ": 2299,
      "er type?": 2300,
      "er -d": 2301,
      "erlock": 2302,
      "eroute ": 2303,
      "e st": 2304,
      "e Google ": 2305,
      "e site": 2306,
      "e <target>": 2307,
      "e metho": 2308,
      "e indicat": 2309,
      "e exist": 2310,
      "e route ": 2311,
      "e files?": 2312,
      "e structure?": 2313,
      "e /bin": 2314,
      "e HK": 2315,
      "e IP?": 2316,
      "et R": 2317,
      "ark": 2318,
      "arp -": 2319,
      "ards?": 2320,
      "ar of a domain?": 2321,
      "ar with": 2322,
      ".com for domain": 2323,
      ".company": 2324,
      "p target.com": 2325,
      "p for ": 2326,
      "p no": 2327,
      "p files?": 2328,
      "p 137": 2329,
      "org ": 2330,
      "orag": 2331,
      "orig": 2332,
      "or di": 2333,
      "ors or ": 2334,
      "les": 2335,
      "le>; s": 2336,
      "leges with ": 2337,
      "ent ": 2338,
      "en de": 2339,
      "encod": 2340,
      "enfor": 2341,
      "ence ": 2342,
      "exch": 2343,
      "extract ": 2344,
      "t or ": 2345,
      "t | grep ": 2346,
      "t with": 2347,
      "t list": 2348,
      "t for ": 2349,
      "t headers?": 2350,
      "t of a site?": 2351,
      "t info?": 2352,
      "t <s": 2353,
      "t cer": 2354,
      "report": 2355,
      "redential": 2356,
      "repos?": 2357,
      "reverse ": 2358,
      "referrer": 2359,
      "registr": 2360,
      "reg s": 2361,
      "relate ": 2362,
      "reven": 2363,
      "s?://": 2364,
      "get po": 2365,
      "getcontac": 2366,
      "target with ": 2367,
      "map -": 2368,
      "maig": 2369,
      "mazon": 2370,
      "mapex": 2371,
      "mat.com": 2372,
      "mat for ": 2373,
      " fron": 2374,
      " financ": 2375,
      "its?": 2376,
      " str": 2377,
      " scr": 2378,
      " stor": 2379,
      " smb": 2380,
      " stack": 2381,
      " sort ": 2382,
      " script ": 2383,
      " site us": 2384,
      " s3://": 2385,
      " scan": 2386,
      " spreadshe": 2387,
      "attr": 2388,
      "atus": 2389,
      "at.google.com \"company\"": 2390,
      "ated by": 2391,
      "at2 <attacker_ip>": 2392,
      "atz se": 2393,
      "d example.com": 2394,
      "d links?": 2395,
      "d DNS?": 2396,
      "d hashe": 2397,
      "d Cloudflare?": 2398,
      "d [Jenkins": 2399,
      "find subdomain": 2400,
      "chine": 2401,
      "chat.google.com \"company\"": 2402,
      "or use ": 2403,
      "or pag": 2404,
      "or Server": 2405,
      "or way": 2406,
      "or historic": 2407,
      "or tag": 2408,
      ".com intext:\"": 2409,
      ".com ANY": 2410,
      ".com MX": 2411,
      "ec for ": 2412,
      "ecall": 2413,
      "ecifi": 2414,
      "ectl ": 2415,
      "ec smb": 2416,
      "on a domain?": 2417,
      "on sam": 2418,
      "onpasswords": 2419,
      "on Linux?": 2420,
      "s http://target.com ": 2421,
      "s header?": 2422,
      "s host": 2423,
      "s read": 2424,
      "s cre": 2425,
      "s ports?": 2426,
      "s comm": 2427,
      "s API ": 2428,
      "s using ": 2429,
      "s linked ": 2430,
      "s threads?": 2431,
      "s iam ": 2432,
      "s men": 2433,
      "um po": 2434,
      "ument ": 2435,
      "ites?": 2436,
      " -N": 2437,
      " -st": 2438,
      " -P <": 2439,
      " -a <target>": 2440,
      " -h <target>": 2441,
      " -noo": 2442,
      " -tex": 2443,
      " -u <user>": 2444,
      " -x 8.8.8.8": 2445,
      " -I https://target.com": 2446,
      "ant.": 2447,
      "an email": 2448,
      "acti": 2449,
      "aces": 2450,
      "acces": 2451,
      "accoun": 2452,
      "lides?": 2453,
      "urce ": 2454,
      "nmap target.com": 2455,
      "tric": 2456,
      "trap": 2457,
      "trail": 2458,
      "trate": 2459,
      "ate pr": 2460,
      "ate DNS ": 2461,
      "ate a re": 2462,
      "nmap -6 -": 2463,
      "nmap -O target.com": 2464,
      " sitemap.xml": 2465,
      "enumeration": 2466,
      " for a ": 2467,
      " for par": 2468,
      " for tesla": 2469,
      " for microsoft": 2470,
      " for Sho": 2471,
      "How do I enumerate web": 2472,
      "How do I enumerate login": 2473,
      "How do I enumerate email": 2474,
      "How do I enumerate SSL": 2475,
      "How do I enumerate Gra": 2476,
      "How do I enumerate SNMP ": 2477,
      "How do I enumerate Redi": 2478,
      "How do I enumerate run": 2479,
      "How do I enumerate Elasticsearch": 2480,
      "How do I enumerate RabbitMQ": 2481,
      "How do I enumerate Zookeeper": 2482,
      "How do I enumerate network interfaces?": 2483,
      "How do I enumerate GCP ": 2484,
      "urlscan": 2485,
      "url <url>": 2486,
      "url=e": 2487,
      "check re": 2488,
      "How do I find HTTP ": 2489,
      "How do I find exposed ": 2490,
      "How do I find IP ": 2491,
      "How do I find archiv": 2492,
      "How do I find breach": 2493,
      "How do I find MX": 2494,
      "How do I find hi": 2495,
      "How do I find PDF": 2496,
      "How do I find FTP server": 2497,
      "How do I find historic": 2498,
      "How do I find WHO": 2499,
      "How do I find technolog": 2500,
      "How do I find acti": 2501,
      " <key": 2502,
      " <sub": 2503,
      "How do I check default ": 2504,
      " dork: \"": 2505,
      "nmap -p 9200 <target>": 2506,
      "google dork: \"": 2507,
      "google dork: ext:conf": 2508,
      "amps": 2509,
      "theHar": 2510,
      " site:trello": 2511,
      "c mar": 2512,
      "traceroute ": 2513,
      "How do I exfil": 2514,
      "P entries?": 2515,
      "P passwords": 2516,
      "How do I extract header": 2517,
      "How do I extract ph": 2518,
      "How do I extract email": 2519,
      "How do I extract SSL cer": 2520,
      "How do I extract cooki": 2521,
      "How do I extract JavaScript ": 2522,
      "How do I extract DNSSE": 2523,
      "How do I extract favicon hash": 2524,
      "How do I extract EX": 2525,
      "How do I extract IP": 2526,
      "ustotal": 2527,
      "used by a site?": 2528,
      " <target>:443": 2529,
      " <target> -u <user>": 2530,
      "google dork: site:no": 2531,
      "google dork: site:keep": 2532,
      "google dork: site:bit": 2533,
      "google dork: site:git": 2534,
      "google dork: site:trello": 2535,
      "google dork: site:group": 2536,
      "google dork: site:meet": 2537,
      "google dork: site:s3.a": 2538,
      "google dork: site:chat.google.com \"company\"": 2539,
      " a pag": 2540,
      " addres": 2541,
      " alway": 2542,
      " apps?": 2543,
      "dirb <url>": 2544,
      "the ASN": 2545,
      "the sam": 2546,
      "target.com/re": 2547,
      "pubkey": 2548,
      ":// pro": 2549,
      "prof": 2550,
      "public <target>": 2551,
      "curl POST": 2552,
      "How do I check for SQL": 2553,
      "How do I check for CDN": 2554,
      "How do I check for Bro": 2555,
      "How do I check for HST": 2556,
      "How do I check for OCS": 2557,
      "How do I check for ty": 2558,
      "How do I check for wil": 2559,
      "http_cod": 2560,
      "https?://": 2561,
      "public key": 2562,
      "grep for ": 2563,
      "sts?": 2564,
      "il ls": 2565,
      "ilar with": 2566,
      "opers": 2567,
      "curl -w '%{": 2568,
      "curl --http2": 2569,
      "curl -i -": 2570,
      "curl -s http://target.com ": 2571,
      "S ports?": 2572,
      "S type?": 2573,
      "S enfor": 2574,
      "log | grep ": 2575,
      "location": 2576,
      "load ": 2577,
      "session": 2578,
      "ses from a webpage?": 2579,
      "sed document": 2580,
      "| un": 2581,
      "| wc -": 2582,
      "g \"company\"": 2583,
      "g +trac": 2584,
      "How do I find public Git": 2585,
      "How do I find public exploit": 2586,
      "How do I find public Bit": 2587,
      "How do I find public Dropbox": 2588,
      "How do I find public No": 2589,
      "How do I find public RSS": 2590,
      "How do I find public S3 buckets?": 2591,
      "How do I find public XML": 2592,
      "How do I find public past": 2593,
      "open port": 2594,
      "How do I fingerprint web": 2595,
      "How do I fingerprint SSH": 2596,
      "How do I fingerprint SNMP ": 2597,
      "How do I fingerprint LD": 2598,
      "How do I fingerprint HTTP server": 2599,
      "How do I fingerprint RP": 2600,
      "How do I fingerprint FTP server": 2601,
      "How do I fingerprint Telnet": 2602,
      "How do I fingerprint TLS cipher su": 2603,
      "How do I fingerprint HTTP/2 support?": 2604,
      "How do I fingerprint CDN provider": 2605,
      "How do I fingerprint HTTP status code ": 2606,
      "How do I fingerprint CM": 2607,
      "How do I fingerprint IM": 2608,
      "How do I fingerprint Kerber": 2609,
      "How do I fingerprint Net": 2610,
      "How do I fingerprint POP": 2611,
      "How do I fingerprint XMP": 2612,
      "| grep defaul": 2613,
      "DNS": 2614,
      "target.com | grep ": 2615,
      "target.com | grep -i": 2616,
      " ps -": 2617,
      " pers": 2618,
      " domains?": 2619,
      " domain re": 2620,
      " domain.com?": 2621,
      " domain tools": 2622,
      " domain keywords": 2623,
      "help": 2624,
      "curl -I https://": 2625,
      "curl -I -X ": 2626,
      "curl -I <url>": 2627,
      "spf": 2628,
      "sport": 2629,
      "spection?": 2630,
      "al records": 2631,
      "ticket": 2632,
      "tiple ": 2633,
      "tive?": 2634,
      "example.com | grep -i": 2635,
      "example.com wa": 2636,
      "example.com SRV": 2637,
      "HTTP response?": 2638,
      "pods?": 2639,
      "posquat": 2640,
      "pos men": 2641,
      "ssh -v": 2642,
      "correlate ": 2643,
      " redirect ": 2644,
      " repos men": 2645,
      "contro": 2646,
      "How do I check for open director": 2647,
      "How do I check for open ph": 2648,
      "How do I check for open redirect ": 2649,
      "| grep Or": 2650,
      "| grep Allow": 2651,
      "dig ANY": 2652,
      "dig _s": 2653,
      "dig gmail": 2654,
      "dig microsoft": 2655,
      "dig *.": 2656,
      "dig _d": 2657,
      "le web": 2658,
      "DNS records?": 2659,
      "DNS response?": 2660,
      "use sh": 2661,
      "use up": 2662,
      "use host": 2663,
      "use wa": 2664,
      "use archiv": 2665,
      "use exploit": 2666,
      "use prox": 2667,
      "use whois or ": 2668,
      "use aquaton": 2669,
      "use misconfigure": 2670,
      "use ipinfo.io": 2671,
      "use security": 2672,
      "use vho": 2673,
      "use reverse ": 2674,
      "use getcontac": 2675,
      "use urlscan": 2676,
      "use curl -w '%{": 2677,
      "headers from": 2678,
      "headers or ": 2679,
      "How do I check for open NF": 2680,
      "How do I check for open Jenkin": 2681,
      "How do I check for open My": 2682,
      "How do I check for open SNMP ": 2683,
      "How do I check for open VN": 2684,
      "How do I check for open Web": 2685,
      "How do I check for open Postgre": 2686,
      "How do I check for open Oracle ": 2687,
      "How do I check for open MSSQL": 2688,
      "How do I check for open Redi": 2689,
      "How do I check for open Telnet": 2690,
      "How do I check for open Jenkins dashboards?": 2691,
      "How do I check for open Elasticsearch": 2692,
      "How do I check for open Mongo": 2693,
      "How do I check for open RabbitMQ": 2694,
      "How do I check for open Zookeeper": 2695,
      "How do I check for open Co": 2696,
      "How do I check for open Kibana": 2697,
      "How do I check for open SIP ": 2698,
      "ags?": 2699,
      "host -": 2700,
      "s on a web": 2701,
      "company?": 2702,
      "company.com": 2703,
      "company email": 2704,
      "google dork: site:example.com filetype:log": 2705,
      "google dork: site:example.com filetype:cr": 2706,
      "google dork: site:example.com filetype:bak": 2707,
      "google dork: site:example.com filetype:sql": 2708,
      "google dork: site:example.com filetype:conf": 2709,
      "google dork: site:example.com filetype:pem": 2710,
      "google dork: site:example.com filetype:csv": 2711,
      "google dork: site:example.com filetype:mdb": 2712,
      "google dork: site:example.com filetype:rar": 2713,
      "google dork: site:example.com filetype:xls": 2714,
      "google dork: site:example.com filetype:yam": 2715,
      "google dork: site:example.com filetype:ini": 2716,
      "google dork: site:example.com filetype:docx": 2717,
      "google dork: site:example.com filetype:tar.gz": 2718,
      "google dork: site:example.com filetype:zip": 2719,
      "docker": 2720,
      "sh://<target>": 2721,
      "shake": 2722,
      "showmo": 2723,
      "iles linked ": 2724,
      " from a ": 2725,
      " from a domain?": 2726,
      " from for": 2727,
      " from photo.jp": 2728,
      " from an SSL cert?": 2729,
      "curl -I http://target.com | grep Con": 2730,
      "curl -I http://target.com | grep ET": 2731,
      "curl -I http://target.com | grep Lo": 2732,
      "curl -I http://target.com | grep Var": 2733,
      "curl -I http://target.com | grep charset": 2734,
      "curl -I http://target.com | grep Accep": 2735,
      "curl -I http://target.com | grep X-Frame-Option": 2736,
      "curl -I http://target.com | grep Last-Modifi": 2737,
      "curl -I http://target.com | grep Retry-After": 2738,
      "curl -I http://target.com | grep Re": 2739,
      "curl -I http://target.com | grep frame-ancestors": 2740,
      "curl -I http://target.com | grep report": 2741,
      " indicat": 2742,
      " intro": 2743,
      " injection?": 2744,
      " in fron": 2745,
      "o \"company\"": 2746,
      "with financ": 2747,
      "How do I find public Google Group": 2748,
      "How do I find public Google Jamboar": 2749,
      "How do I find public Google Kee": 2750,
      "How do I find public Google Meet": 2751,
      "es, and ": 2752,
      "es from for": 2753,
      "key ": 2754,
      "ked?": 2755,
      "exposed document": 2756,
      " files on a site?": 2757,
      " files on a web": 2758,
      "How do I extract DNS TXT": 2759,
      "How do I extract DNS UR": 2760,
      "How do I extract DNS NS ": 2761,
      "How do I extract DNS SO": 2762,
      "How do I extract DNS A records?": 2763,
      "How do I extract DNS NAP": 2764,
      "How do I extract DNS SRV": 2765,
      "How do I extract DNS TTL": 2766,
      "How do I extract DNS DNAME": 2767,
      "How do I extract DNS APL": 2768,
      "How do I extract DNS AAAA": 2769,
      "How do I extract DNS SSHF": 2770,
      "How do I extract DNS CERT": 2771,
      "How do I extract DNS CNAME": 2772,
      "How do I extract DNS HINFO": 2773,
      "How do I extract DNS LOC": 2774,
      "How do I extract DNS PTR records?": 2775,
      "How do I extract DNS RP records?": 2776,
      "dig example.com A": 2777,
      "dig example.com SO": 2778,
      "dig example.com NS": 2779,
      "dig example.com NAP": 2780,
      "dig example.com RP": 2781,
      "dig example.com DNAME": 2782,
      "dig example.com APL": 2783,
      "dig example.com AAAA": 2784,
      "dig example.com SSHF": 2785,
      "dig example.com URI": 2786,
      "dig example.com CERT": 2787,
      "dig example.com CNAME": 2788,
      "dig example.com HINFO": 2789,
      "dig example.com LOC": 2790,
      "exposed config": 2791,
      " cra": 2792,
      " crt.sh": 2793,
      " cards?": 2794,
      " credential": 2795,
      "445 target.com": 2796,
      "SSN\"": 2797,
      "fiel": 2798,
      "ip._": 2799,
      "ipts and ": 2800,
      "ents?": 2801,
      "user hand": 2802,
      " a domain us": 2803,
      "log files on a domain?": 2804,
      "logonpasswords": 2805,
      " ports on ": 2806,
      "net user": 2807,
      "net>/24": 2808,
      "scat2 <attacker_ip>": 2809,
      "How do I check for exposed Git": 2810,
      "How do I check for exposed config files?": 2811,
      "search site:trello": 2812,
      "search crt.sh": 2813,
      "se for ": 2814,
      "se headers for CDN": 2815,
      "se auth": 2816,
      "website?": 2817,
      "web vulnerabilities?": 2818,
      "nmap -p 23 target.com": 2819,
      "upload": 2820,
      "nmap -p 1-6": 2821,
      "sponse headers for CDN": 2822,
      ".google.com \"re": 2823,
      "How do I check for exposed .cr": 2824,
      "How do I check for exposed .conf": 2825,
      "How do I check for exposed .pem": 2826,
      "How do I check for exposed .git": 2827,
      "How do I check for exposed .mdb": 2828,
      "How do I check for exposed .rar": 2829,
      "How do I check for exposed .svn": 2830,
      "How do I check for exposed .env files?": 2831,
      "How do I check for exposed .DS_Stor": 2832,
      "How do I check for exposed .tar.gz": 2833,
      "How do I check for exposed .zip ": 2834,
      "responses?": 2835,
      "ect OS ": 2836,
      "with to ": 2837,
      "with user@example.com": 2838,
      "body ": 2839,
      "ling?": 2840,
      "t -e <target>": 2841,
      "t -d example.com": 2842,
      "t -P passwords": 2843,
      "nmap -p 300": 2844,
      "nmap -p 506": 2845,
      "nmap -p 522": 2846,
      " a usernam": 2847,
      " a breach": 2848,
      " a rang": 2849,
      " a target with ": 2850,
      "How do I find public .bak": 2851,
      "How do I find public .sql": 2852,
      "How do I find public .xml": 2853,
      "How do I find public .json": 2854,
      "How do I find public .csv": 2855,
      "How do I find public .xls": 2856,
      "How do I find public .yam": 2857,
      "How do I find public .ini": 2858,
      "How do I find public .docx": 2859,
      "How do I find public .log files on a domain?": 2860,
      "ds support": 2861,
      "ed scr": 2862,
      "words?": 2863,
      "word hashe": 2864,
      "y list": 2865,
      "y RD": 2866,
      "y to ": 2867,
      "How do I extract the TTL": 2868,
      "How do I extract the Set-Cookie ": 2869,
      "How do I extract the X-Powered-B": 2870,
      "How do I extract the HTTP status code ": 2871,
      "How do I extract the SAN": 2872,
      "How do I extract the server": 2873,
      "How do I extract the public key": 2874,
      "How do I extract the HTTP ET": 2875,
      "How do I extract the HTTP Var": 2876,
      "How do I extract the HTTP Accep": 2877,
      "How do I extract the HTTP Allow": 2878,
      "How do I extract the HTTP X-Frame-Option": 2879,
      "How do I extract the HTTP Last-Modifi": 2880,
      "How do I extract the HTTP Retry-After": 2881,
      "How do I extract the HTTP referrer": 2882,
      "domains": 2883,
      "domain.com": 2884,
      "domain.com\"": 2885,
      "domain <domain>": 2886,
      "IP via ": 2887,
      "IP block": 2888,
      "IP | grep Or": 2889,
      "elopers": 2890,
      "fo document": 2891,
      "ner of an ": 2892,
      "phql": 2893,
      "php files?": 2894,
      "intitle:\"": 2895,
      " forms?": 2896,
      " forms on a site?": 2897,
      " format for ": 2898,
      "acklist": 2899,
      "ackMap": 2900,
      "ackmapex": 2901,
      "How do I fingerprint the backend ": 2902,
      "How do I fingerprint the JavaScript ": 2903,
      "How do I fingerprint the HTTP/2 support?": 2904,
      "How do I fingerprint the load ": 2905,
      "How do I fingerprint the session": 2906,
      "How do I fingerprint the HTTP keep": 2907,
      "How do I fingerprint the HTTP cach": 2908,
      "How do I fingerprint the HTTP redirect ": 2909,
      "confidential": 2910,
      "document ": 2911,
      " if a domain us": 2912,
      "response tim": 2913,
      " tool": 2914,
      " technolog": 2915,
      "P servic": 2916,
      "P stap": 2917,
      "s from an SSL cert?": 2918,
      "s from log": 2919,
      "s from sitemap.xml": 2920,
      "s from domain.com?": 2921,
      "ing behavior?": 2922,
      "ing the sam": 2923,
      "How do I check if email": 2924,
      "How do I check if a usernam": 2925,
      "hosts?": 2926,
      "hosts in": 2927,
      "hostbin": 2928,
      "hosts on a subnet?": 2929,
      "hosting pro": 2930,
      "login site:example.com": 2931,
      "login forms?": 2932,
      "board [Jenkins": 2933,
      "Content-Security": 2934,
      " of a site?": 2935,
      " of 8.8.8.8": 2936,
      "assist": 2937,
      "crt.sh": 2938,
      "crackmapex": 2939,
      "e-for": 2940,
      "e-discover": 2941,
      "e-h.or": 2942,
      "e-contro": 2943,
      "ed header?": 2944,
      "ed version": 2945,
      "ed UR": 2946,
      "ed credential": 2947,
      "ed on sam": 2948,
      "sitemap.xml": 2949,
      "to social ": 2950,
      "tocol": 2951,
      "to -h <target>": 2952,
      "unity": 2953,
      "unt -e <target>": 2954,
      "util ls": 2955,
      "ute-for": 2956,
      " decode ": 2957,
      " dehashe": 2958,
      "ing\"": 2959,
      "ing a domain?": 2960,
      "ingchecker": 2961,
      "nmap -p 88 target.com": 2962,
      "google dork: site:example.com ext:": 2963,
      "google dork: site:example.com \".git": 2964,
      "google dork: site:example.com intitle:\"": 2965,
      "dig -x 8.8.8.8": 2966,
      "openssl deb": 2967,
      "tion pag": 2968,
      "tion.s": 2969,
      "tioning a domain?": 2970,
      "keys in": 2971,
      "keywords?": 2972,
      "cket endpoints?": 2973,
      "000": 2974,
      "00 target.com": 2975,
      "00f target.com": 2976,
      "SMB?": 2977,
      "SMB shar": 2978,
      "e.org ": 2979,
      "estamps": 2980,
      "ls s3://": 2981,
      "coding": 2982,
      "list-user": 2983,
      "list3r": 2984,
      "list> s": 2985,
      "How do I check TLS ": 2986,
      "How do I check SSH": 2987,
      "How do I check SNMP ": 2988,
      "How do I check SSL cer": 2989,
      "How do I check DNS records": 2990,
      "How do I check SPF records": 2991,
      "How do I check open port": 2992,
      " pages on a site?": 2993,
      " domain.com @ns1.": 2994,
      " domain.com -b": 2995,
      "time?": 2996,
      "time header": 2997,
      "timing?": 2998,
      "timestamps": 2999,
      "version on": 3000,
      "versions support": 3001,
      "o 'bash": 3002,
      "How do I find public Google Slides?": 3003,
      " http://target.com/non": 3004,
      " http://target.com/gra": 3005,
      "nmap -p 3389 target.com": 3006,
      "How do I fingerprint the HTTP response languag": 3007,
      "How do I fingerprint the HTTP response charset": 3008,
      "How do I fingerprint the HTTP response structure?": 3009,
      "How do I fingerprint the HTTP response fresh": 3010,
      "How do I fingerprint the HTTP response siz": 3011,
      "How do I fingerprint the HTTP response encod": 3012,
      "How do I fingerprint the HTTP response timing?": 3013,
      "nc target.com 38": 3014,
      "inspect load": 3015,
      "inspect cach": 3016,
      "inspect HTML": 3017,
      "inspect Set-Cookie ": 3018,
      "inspect JS ": 3019,
      "google dork: site:docs.google.com intext:\"": 3020,
      "CDN us": 3021,
      "Eo '<loc>": 3022,
      "]{2,}": 3023,
      "a CVE": 3024,
      "a company?": 3025,
      "app/kibana": 3026,
      "behin": 3027,
      "been de": 3028,
      "es Cloudflare?": 3029,
      "es DM": 3030,
      "es pods?": 3031,
      "forms?": 3032,
      "for exploit": 3033,
      "for a re": 3034,
      "for nonce ": 3035,
      "is your ": 3036,
      "istence ": 3037,
      "lookup ": 3038,
      "look for par": 3039,
      "name?": 3040,
      "os servic": 3041,
      "pages?": 3042,
      "page indicat": 3043,
      "st enumeration": 3044,
      "s for a CVE": 3045,
      "shell": 3046,
      "who ma": 3047,
      " data?": 3048,
      " data with ": 3049,
      " dataset": 3050,
      " data from photo.jp": 3051,
      "How do I scan ports on": 3052,
      "How do I scan all": 3053,
      "inurl:login": 3054,
      "ancer type?": 3055,
      "ange metho": 3056,
      "How do I find the ASN": 3057,
      "How do I find the backend ": 3058,
      "How do I find the TLS cipher su": 3059,
      "How do I find the favicon hash": 3060,
      "How do I find the orig": 3061,
      "How do I find the registr": 3062,
      "direct?": 3063,
      " certificates?": 3064,
      "bucket repos?": 3065,
      "bucket.or": 3066,
      "google dork: site:docs.google.com/presentation": 3067,
      "google dork: site:docs.google.com/document ": 3068,
      "TXT | grep ": 3069,
      "TXT records for ": 3070,
      " users?": 3071,
      " with netcat?": 3072,
      " with {\"query\":\"{__schema}\"": 3073,
      " with mm": 3074,
      "3}[0-9]{1,3}": 3075,
      "X GET": 3076,
      "X-For": 3077,
      "ainfo ": 3078,
      "ainers?": 3079,
      "ce SSH": 3080,
      "js' page.html": 3081,
      "min panels?": 3082,
      "password hashe": 3083,
      "sql files?": 3084,
      "sqlmap -": 3085,
      "to hash": 3086,
      "to 1.1.1.1": 3087,
      "to an email": 3088,
      "yout": 3089,
      "e headers and ": 3090,
      " shares with ": 3091,
      "ation?": 3092,
      "ation info": 3093,
      "How do I find social ": 3094,
      "list all ": 3095,
      "How do I enumerate Kibana": 3096,
      "How do I enumerate Kerber": 3097,
      " <url> -i": 3098,
      "curl http://target.com/login": 3099,
      "curl http://target.com/api": 3100,
      "curl http://target.com/.git": 3101,
      "curl http://target.com/sitemap.xml": 3102,
      "curl http://target.com/app/kibana": 3103,
      "grep -Eo '[0-9]{": 3104,
      "grep -Eo '\\b": 3105,
      "grep -Eo '([0-9]{1,3}": 3106,
      "grep -Eo 'hre": 3107,
      "grep -Eo 'https?://": 3108,
      "s on Linux?": 3109,
      "s on mul": 3110,
      "curl -I http://target.com | grep Content-Length": 3111,
      "curl -I http://target.com | grep Content-Disposition": 3112,
      "curl -I http://target.com | grep Content-En": 3113,
      "curl -I http://target.com | grep Content-Languag": 3114,
      "curl -I http://target.com | grep Content-Type": 3115,
      " an AI": 3116,
      "google dork: site:example.com inurl:login": 3117,
      "google dork: site:example.com inurl:rss": 3118,
      "dig domain.com MX": 3119,
      "dig domain.com CAA": 3120,
      "dig domain.com TXT | grep ": 3121,
      "whois tesla": 3122,
      "whois example.com | grep -i": 3123,
      "whois IP | grep Or": 3124,
      "github.com": 3125,
      "github search": 3126,
      "github-search": 3127,
      "github dork: \"": 3128,
      "How do I search for webcam": 3129,
      "How do I search for company email": 3130,
      "How do I search for exposed document": 3131,
      "ervice>://<target>": 3132,
      "intext:\"reven": 3133,
      "intext:\"SSN\"": 3134,
      "openssl s_client -connect target.com:443 | grep ": 3135,
      "openssl s_client -connect target.com:443 | ": 3136,
      "openssl s_client -connect target.com:443 -st": 3137,
      " \".DS_Stor": 3138,
      " 'use exploit": 3139,
      " or br": 3140,
      " or maig": 3141,
      " proxies?": 3142,
      "3 banner?": 3143,
      "3 ls s3://": 3144,
      "<target> -N": 3145,
      "_ipv6": 3146,
      "ave": 3147,
      "ave HK": 3148,
      "fted UR": 3149,
      "ip route ": 3150,
      "kers": 3151,
      "ker or": 3152,
      "l config files?": 3153,
      "nsdum": 3154,
      "nslookup ": 3155,
      "t.pem": 3156,
      "test with": 3157,
      "How do I list AR": 3158,
      "How do I list all ": 3159,
      "How do I list DNS records": 3160,
      "How do I list SMB shar": 3161,
      "ort URI": 3162,
      "s in past": 3163,
      "s in a breach": 3164,
      "s or br": 3165,
      "s or indirect ": 3166,
      "s of a site?": 3167,
      "s of example.com": 3168,
      "s of target.com?": 3169,
      "s of github": 3170,
      "s with netcat?": 3171,
      "s with write ": 3172,
      " --bat": 3173,
      " --url <url>": 3174,
      " --domain <domain>": 3175,
      "licate DNS ": 3176,
      "truecall": 3177,
      "use domain tools": 3178,
      "use dehashe": 3179,
      "admin panels?": 3180,
      "admin/index": 3181,
      "al DNS records?": 3182,
      "al hosts?": 3183,
      "google dork: site:example.com filetype:psd": 3184,
      "google dork: site:example.com filetype:ppt": 3185,
      " caching headers?": 3186,
      " ports on a target with ": 3187,
      " is linked ": 3188,
      "nmap -p 5984 target.com": 3189,
      "nmap -p 5900 target.com": 3190,
      "How do I extract the CSP f": 3191,
      " and hash": 3192,
      "query RD": 3193,
      " for domain.com": 3194,
      ".io with user@example.com": 3195,
      "s from a website?": 3196,
      "google dork: inurl:.svn": 3197,
      "google dork: inurl:login site:example.com": 3198,
      "ute sub": 3199,
      "nc target.com 21": 3200,
      "nc target.com 22": 3201,
      "nc target.com 23": 3202,
      "nc target.com 25": 3203,
      "How do I scan for vulnerab": 3204,
      "How do I scan for live ": 3205,
      "How do I scan for Jenkins dashboards?": 3206,
      "How do I scan for web vulnerabilities?": 3207,
      " directive?": 3208,
      "breachchecker": 3209,
      "breach databa": 3210,
      "How do I identify CDN us": 3211,
      "google dork: site:sites.google.com \"company\"": 3212,
      " /domain": 3213,
      " 10.0.0.5": 3214,
      " used?": 3215,
      "AP via ": 3216,
      "DB instances?": 3217,
      "SON files on a domain?": 3218,
      "[^<]+": 3219,
      "[^\\\"]+": 3220,
      "[A-Z|a-z": 3221,
      "\\.){": 3222,
      "\\.js' page.html": 3223,
      "\\.[A-Z|a-z": 3224,
      "aws.com ": 3225,
      "aws s": 3226,
      "aws iam ": 3227,
      "back ma": 3228,
      "caching headers?": 3229,
      "dnscat2 <attacker_ip>": 3230,
      "echo 'bash": 3231,
      "faced?": 3232,
      "gobus": 3233,
      "hi?": 3234,
      "layout": 3235,
      "language of a site?": 3236,
      "ms with sensitive ": 3237,
      "p- target": 3238,
      "p.example.com SRV": 3239,
      "pe header?": 3240,
      "parked?": 3241,
      "parse auth": 3242,
      "sublist3r": 3243,
      "smb-os": 3244,
      "ve hosts on a subnet?": 3245,
      "zones?": 3246,
      "zone-h.or": 3247,
      "}' http://target.com/gra": 3248,
      "}' or br": 3249,
      "How do I det": 3250,
      "error pag": 3251,
      "e or google dork: inurl:admin": 3252,
      "community": 3253,
      "ets with financ": 3254,
      " source ": 3255,
      " server?": 3256,
      " server type?": 3257,
      " servers for a domain?": 3258,
      ".com or IP look": 3259,
      ".com or check re": 3260,
      " -p target.com": 3261,
      " -p <pass": 3262,
      "and decode ": 3263,
      "How do I enumerate open Mongo": 3264,
      "How do I enumerate open ports on ": 3265,
      "How do I enumerate open shares with ": 3266,
      "How do I enumerate HTTP metho": 3267,
      "How do I enumerate SMB shar": 3268,
      "How do I enumerate NFS shar": 3269,
      "How do I find login portal": 3270,
      "How do I find login forms on a site?": 3271,
      "How do I find login pages on a site?": 3272,
      "How do I extract usernames from for": 3273,
      "google dork: site:dropbox": 3274,
      "curl -X POST": 3275,
      "How do I fingerprint HTTP compression": 3276,
      "How do I fingerprint HTTP redirect chain": 3277,
      "How do I fingerprint HTTP caching headers?": 3278,
      " policy": 3279,
      "curl -I --http2": 3280,
      "cording\"": 3281,
      "via nmap?": 3282,
      "vider of a domain?": 3283,
      "How do I check for open Grafan": 3284,
      "ebin dumps?": 3285,
      " internal": 3286,
      "How do I find public Google Chat ": 3287,
      "How do I find public Google Calendar": 3288,
      "How do I find public Google Classroom": 3289,
      "es from HTTP response?": 3290,
      "nmap -p 21 192.168.1.0/24": 3291,
      "nmap -p 2049 target.com": 3292,
      "nmap -p 162 target.com": 3293,
      "nmap -p 1433 target.com": 3294,
      "nmap -p 1521 target.com": 3295,
      "sslscan <target>:443": 3296,
      "How do I check for exposed .bak.env files?": 3297,
      "How do I check for exposed .bak.php files?": 3298,
      "How do I check for exposed .bak.sql files?": 3299,
      "linux kernel": 3300,
      "nmap -p 5601 <target>": 3301,
      "nmap -p 5432 target.com": 3302,
      "API keys in": 3303,
      "How do I extract the HTTP Content-Length": 3304,
      "How do I extract the HTTP Content-Disposition": 3305,
      "How do I extract the HTTP Content-Ty": 3306,
      "builtwith to ": 3307,
      "phpmy": 3308,
      "quest?": 3309,
      "How do I fingerprint the TLS version?": 3310,
      "How do I fingerprint the TLS hand": 3311,
      "How do I fingerprint the TLS key ": 3312,
      "google dork: intitle:\"kibana": 3313,
      "google dork: intitle:\"index of\"": 3314,
      "google dork: intitle:\"Dash": 3315,
      "methods support": 3316,
      "nmap -p 3306 target.com": 3317,
      "way?": 3318,
      "curl -I http://target.com | grep -i Server": 3319,
      "curl -I http://target.com | grep -i X-Powered-B": 3320,
      "curl -I http://target.com | grep -i Content-Security": 3321,
      "curl -I http://target.com | grep -i cache-contro": 3322,
      "GitHub repos?": 3323,
      "GitHub comm": 3324,
      "GitHub repos men": 3325,
      "credentials?": 3326,
      "credentials in past": 3327,
      "dev/tc": 3328,
      "ign files?": 3329,
      "How do I enumerate Kubernetes pods?": 3330,
      "How do I check if a domain is using ": 3331,
      "How do I check if a domain is bl": 3332,
      "How do I check if a domain is parked?": 3333,
      "google dork: site:example.com inurl:bak.sql": 3334,
      "google dork: site:example.com inurl:bak.env": 3335,
      "google dork: site:example.com inurl:bak.php": 3336,
      "OPTIONS http://target.com ": 3337,
      "How do I extract the CSP rep": 3338,
      "How do I extract the CSP nonce ": 3339,
      "How do I extract the CSP headers from": 3340,
      "query internal": 3341,
      ".io or vir": 3342,
      "How do I identify the CDN provider": 3343,
      "How do I identify the WAF": 3344,
      "How do I identify the hosting pro": 3345,
      "google dork: site:sites.google.com ext:conf": 3346,
      "google dork: site:sites.google.com \"templat": 3347,
      "google dork: site:sites.google.com inurl:login": 3348,
      "Linux kernel": 3349,
      "whatweb <url>": 3350,
      " documents?": 3351,
      "How can I extract ": 3352,
      "How can I find subdomain": 3353,
      "How can I list all ": 3354,
      "exiftool audio.mp3": 3355,
      "exiftool photo.jp": 3356,
      "exiftool image.jp": 3357,
      "attacker_ip>/4444": 3358,
      "s and body ": 3359,
      "s like ff": 3360,
      "s like X-For": 3361,
      "analyze headers, cooki": 3362,
      "analyze headers and body ": 3363,
      "analyze headers like X-For": 3364,
      "How do I enumerate Docker cont": 3365,
      "tificate det": 3366,
      "snmpwalk -v2c -c public <target>": 3367,
      " >& /": 3368,
      " S3 buckets?": 3369,
      " Stric": 3370,
      " public prox": 3371,
      " public repos?": 3372,
      " up domain re": 3373,
      " uptime?": 3374,
      " cookie structure?": 3375,
      "\"]+\"' page.html": 3376,
      "'m alway": 3377,
      "-]+@[A-Za-z0-9": 3378,
      "._%+": 3379,
      ".save": 3380,
      "/<mo": 3381,
      "ARC?": 3382,
      "CAA records?": 3383,
      "ID?": 3384,
      "NS <url> -i": 3385,
      "PDF files?": 3386,
      "SAM databa": 3387,
      "Trello boards?": 3388,
      "Trello cards?": 3389,
      "\\b' page.html": 3390,
      "ails of target.com?": 3391,
      "card\" \"company\"": 3392,
      "cs with sensitive ": 3393,
      "cs ID?": 3394,
      "cesses?": 3395,
      "fana?": 3396,
      "ikatz se": 3397,
      "imilar with": 3398,
      "ira boards?": 3399,
      "ira.company": 3400,
      "marc.example.com ": 3401,
      "media?": 3402,
      "mediainfo ": 3403,
      "nc -zv target.com ": 3404,
      "nc -e /bin": 3405,
      "sd des": 3406,
      "s.com or di": 3407,
      "tcp.example.com SRV": 3408,
      "up tools": 3409,
      "v6?": 3410,
      "How do I use Cr": 3411,
      "How do I use Met": 3412,
      "indicators": 3413,
      "existent": 3414,
      "rep.io with user@example.com": 3415,
      "reshark": 3416,
      " sam.save": 3417,
      "d DNS entries?": 3418,
      "d DNS or historic": 3419,
      "s --no-sign-request": 3420,
      "amboard.google.com \"company\"": 3421,
      " -i >& /": 3422,
      " -d '{\"query\":\"{__schema}\"": 3423,
      " -d <domain>": 3424,
      "live behavior?": 3425,
      "enum4linux?": 3426,
      "enum4linux -a <target>": 3427,
      "nmap -sn 192.168.1.0/24": 3428,
      "nmap -sn <sub": 3429,
      "nmap -p- <target>": 3430,
      "nmap -p- 10.0.0.5": 3431,
      "How do I enumerate AWS ": 3432,
      "How do I enumerate Azur": 3433,
      "How do I enumerate public GitHub repos?": 3434,
      "How do I enumerate public Trello cards?": 3435,
      "How do I enumerate DNS records?": 3436,
      "How do I enumerate DNS zones?": 3437,
      "How do I enumerate users on Windows?": 3438,
      "How do I enumerate users on Linux?": 3439,
      "How do I find open proxies?": 3440,
      "How do I find open S3 buckets?": 3441,
      "How do I find the HTTP redirect chain": 3442,
      "How do I find the HTTP response tim": 3443,
      "How do I find email format for ": 3444,
      "How do I find email servers for a domain?": 3445,
      "How do I find leaked API keys in": 3446,
      "How do I find leaked credentials in past": 3447,
      " <attacker_ip> 4444": 3448,
      "How do I check for default ": 3449,
      "How do I check for dup": 3450,
      "nmap -p 6379 <target>": 3451,
      "nmap -p 6379 target.com": 3452,
      "How do I extract links from a webpage?": 3453,
      "How do I extract links from sitemap.xml": 3454,
      "google dork: site:calendar": 3455,
      "google dork: site:classroom": 3456,
      "google dork: site:jira.company": 3457,
      "google dork: site:jamboard.google.com \"company\"": 3458,
      "g | grep GPS": 3459,
      "How do I find public JSON files on a domain?": 3460,
      "How do I find public Jira boards?": 3461,
      "How do I fingerprint SMB version?": 3462,
      "How do I fingerprint SMTP ": 3463,
      " phone number": 3464,
      "hello?": 3465,
      "all-nam": 3466,
      " recordings?": 3467,
      " records or br": 3468,
      "How do I check for open ports on IP": 3469,
      "How do I check for open ports on a rang": 3470,
      "virtu": 3471,
      "verse shell": 3472,
      "age on a domain?": 3473,
      "age accoun": 3474,
      "How do I find public Google Docs?": 3475,
      "How do I find public Google Docs with sensitive ": 3476,
      "How do I find public Google Forms?": 3477,
      "How do I find public Google Forms with sensitive ": 3478,
      " portals?": 3479,
      "search breach databa": 3480,
      "search zone-h.or": 3481,
      "searchsploit <CVE": 3482,
      "searchsploit linux kernel": 3483,
      "webcamXP\"": 3484,
      ".google.com intext:\"upload": 3485,
      "How do I find public .ppt ": 3486,
      "How do I find public .psd des": 3487,
      "word>": 3488,
      "wordlist> s": 3489,
      "IP lookup tools": 3490,
      "IP address?": 3491,
      "IP address of github": 3492,
      "How do I fingerprint the HTTP server stack": 3493,
      "How do I fingerprint the HTTP server uptime?": 3494,
      "How do I check if a site us": 3495,
      "How do I check if a phone number": 3496,
      "google dork: inurl:\"phpmy": 3497,
      "google dork: inurl:\"webcamXP\"": 3498,
      " of an IP address?": 3499,
      " dev tools": 3500,
      " developers": 3501,
      "dig axfr example.com ": 3502,
      "dig axfr domain.com @ns1.": 3503,
      "time_total}\\n": 3504,
      "time_total}' or br": 3505,
      "How do I find public Google Sheets?": 3506,
      "How do I find public Google Sheets with financ": 3507,
      "nc target.com 143": 3508,
      "nc target.com 110": 3509,
      "inspect response headers for CDN": 3510,
      "inspect response headers or ": 3511,
      " IP from a domain?": 3512,
      "api_key": 3513,
      "google dork: site:docs.google.com/forms \"company\"": 3514,
      "google dork: site:docs.google.com/forms intext:\"SSN\"": 3515,
      " user@target.com": 3516,
      " user@example.com wa": 3517,
      "3}-[0-9]{3}-[0-9]{": 3518,
      "your AI ": 3519,
      "How do I find domains shar": 3520,
      "How do I find domains host": 3521,
      "How do I find subdomains?": 3522,
      "How do I find subdomains using ": 3523,
      "dig domain.com ANY |": 3524,
      "whois or ICAN": 3525,
      "How do I search for public GitHub repos men": 3526,
      "How do I search for public Trello boards?": 3527,
      "use dnst": 3528,
      "use dnsdum": 3529,
      " records for gmail": 3530,
      "dig +short example.com": 3531,
      "dig +short target.com | grep ": 3532,
      "google dork: inurl:admin site:example.com": 3533,
      "How do I find public Google Sites templat": 3534,
      "How do I find public Google Sites pages?": 3535,
      "How do I find public Google Sites with exposed config": 3536,
      "How do I find public Google Sites with login forms?": 3537,
      "rame-ancestors directive?": 3538,
      "How do I extract metadata from audio.mp3": 3539,
      "How do I extract metadata from image.jp": 3540,
      "How do I extract metadata from video.mp4": 3541,
      "How do I extract metadata from PDF files?": 3542,
      "NS http://target.com -i": 3543,
      "smbclient -L //host -": 3544,
      "smbclient -L //<target> -N": 3545,
      "How do I dump password hashe": 3546,
      "How do I dump SAM databa": 3547,
      "ite used?": 3548,
      " search?": 3549,
      "How do I extract usernames from Wor": 3550,
      "How do I extract usernames from GitHub comm": 3551,
      "google dork: site:drive.google.com \"company\"": 3552,
      "google dork: site:drive.google.com intext:\"upload": 3553,
      "curl -X OPTIONS <url> -i": 3554,
      "curl -X OPTIONS http://target.com -i": 3555,
      "How do I check for open GraphQL endpoints?": 3556,
      "How do I check for open GraphQL intro": 3557,
      "nmap -p 2181 <target>": 3558,
      "nmap -p 2181 target.com": 3559,
      "nmap -p 5672 target.com": 3560,
      "nmap -p 5672 <target>": 3561,
      "contacts for a domain?": 3562,
      "snmpwalk -v2c -c public target": 3563,
      "snmpwalk -v2c -c public target.com": 3564,
      ".txt <s": 3565,
      "@ns1.example.com": 3566,
      "aquatone-discover": 3567,
      "ferrer-Policy": 3568,
      "gistration info": 3569,
      "hydra -L user": 3570,
      "hydra -l <user>": 3571,
      "misconfigured DNS?": 3572,
      "python script ": 3573,
      "presentations?": 3574,
      "values": 3575,
      " favicon.ico and hash": 3576,
      "one numbers from a webpage?": 3577,
      "nmap --script nbst": 3578,
      "nmap --script smb-os": 3579,
      "DNSSEC?": 3580,
      "use sslyze or Wi": 3581,
      "use sslyze or openssl deb": 3582,
      "use builtwith.com": 3583,
      "use builtwith.com or check re": 3584,
      "How do I find public Google Drive folders?": 3585,
      "How do I find public Google Drive folders with write ": 3586,
      "search pastebin, g": 3587,
      "search pastebin.com for domain": 3588,
      "nmap -p 27017 <target>": 3589,
      "nmap -p 27017 target.com": 3590,
      "openssl x509 -in cer": 3591,
      "openssl x509 -pubkey": 3592,
      "google dork: site:docs.google.com/spreadsheets \"company\"": 3593,
      "google dork: site:docs.google.com/spreadsheets intext:\"reven": 3594,
      "How do I check if a domain has been de": 3595,
      "How do I check if a domain has CAA records?": 3596,
      "[A-Za-z0-9._%+": 3597,
      "curl -I --compressed http://target.com": 3598,
      "curl -I --compressed https://target.com": 3599,
      "curl -o /dev/null -s -w '%{http_cod": 3600,
      "curl -o /dev/null -s -w '%{time_total}\\n": 3601,
      "use hunter.io or email-for": 3602,
      "use hunter.io or emailrep.io with user@example.com": 3603,
      "scrape HTML and grep for ": 3604,
      "scrape HTML and parse auth": 3605,
      " 0>&1": 3606,
      " owner of an ": 3607,
      " are you?": 3608,
      " the IP address of github": 3609,
      " | grep -Eo '<loc>": 3610,
      " exploits?": 3611,
      " API responses?": 3612,
      " compression?": 3613,
      " values?": 3614,
      "\" site:company.com": 3615,
      "\" language:python": 3616,
      "' /var": 3617,
      "' >> ~": 3618,
      ", and s": 3619,
      ", I'm alway": 3620,
      "-alive behavior?": 3621,
      "-x 'use exploit": 3622,
      "-uri": 3623,
      "-specifi": 3624,
      "-ID>": 3625,
      "-discovery -p ": 3626,
      ".pdf": 3627,
      ".php\"": 3628,
      ".-]+\\.[A-Z|a-z": 3629,
      "/syslog": 3630,
      "/etc/pass": 3631,
      "/log/syslog": 3632,
      "/bash <attacker_ip> 4444": 3633,
      "/TLS ciphers?": 3634,
      "/.bashrc": 3635,
      "10.0.0.5?": 3636,
      "1-1000": 3637,
      "4}' page.html": 3638,
      "5535 target.com": 3639,
      ": \"domain.com\"": 3640,
      "; run'": 3641,
      "<bucket> --": 3642,
      "</loc>'": 3643,
      "@company.com\"": 3644,
      "Admin panels?": 3645,
      "Analyti": 3646,
      "Author": 3647,
      "BIOS services?": 3648,
      "C info?": 3649,
      "DOM s": 3650,
      "Exec for ": 3651,
      "For or Server": 3652,
      "HOSTS <target>": 3653,
      "IS contacts for a domain?": 3654,
      "IAM users?": 3655,
      "I'm an AI": 3656,
      "IF GPS data from photo.jp": 3657,
      "LM\\SAM": 3658,
      "Lab repos?": 3659,
      "Ls like target.com/re": 3660,
      "N lookup": 3661,
      "Protocol": 3662,
      "Socket endpoints?": 3663,
      "UA codes": 3664,
      "ayload": 3665,
      "az stor": 3666,
      "ag header?": 3667,
      "at -p 137": 3668,
      "asploit for exploit": 3669,
      "balancer type?": 3670,
      "cement": 3671,
      "calate pr": 3672,
      "cloudflare": 3673,
      "cat /etc/pass": 3674,
      "dule>; s": 3675,
      "download": 3676,
      "dan search?": 3677,
      "dden files on a web": 3678,
      "d.com or breachchecker": 3679,
      "ded-For or Server": 3680,
      "dcard DNS entries?": 3681,
      "ds --all-nam": 3682,
      "dPress comm": 3683,
      "ew network interfaces?": 3684,
      "espaces": 3685,
      "es on a host?": 3686,
      "e}' http://target.com": 3687,
      "ework used?": 3688,
      "flags?": 3689,
      "fw00f target.com": 3690,
      "fconsole ": 3691,
      "from a pag": 3692,
      "framework used?": 3693,
      "f=\"[^\"]+\"' page.html": 3694,
      "gsutil ls": 3695,
      "git log | grep ": 3696,
      "gateway?": 3697,
      "gName": 3698,
      "geolocation": 3699,
      "how are you?": 3700,
      "iq -d": 3701,
      "ial data?": 3702,
      "ivileges with ": 3703,
      "ibutes": 3704,
      "ies used by a site?": 3705,
      "ify if a domain us": 3706,
      "kubectl ": 3707,
      "kurlsa::": 3708,
      "king page indicat": 3709,
      "lab.com \"company\"": 3710,
      "msfconsole ": 3711,
      "mimikatz se": 3712,
      "ness?": 3713,
      "nikto -h <target>": 3714,
      "ning processes?": 3715,
      "os ticket": 3716,
      "ps aux": 3717,
      "pster or ": 3718,
      "pMyAdmin panels?": 3719,
      "platforms?": 3720,
      "p/<attacker_ip>/4444": 3721,
      "pdfinfo document": 3722,
      "ransport": 3723,
      "rpcinfo -p target.com": 3724,
      "s.txt -P passwords": 3725,
      "tli compression?": 3726,
      "ted domains?": 3727,
      "tain pers": 3728,
      "t-Transport": 3729,
      "uchDB ports?": 3730,
      "u <url> --bat": 3731,
      "uf or gobus": 3732,
      "vil.com": 3733,
      "vester -d": 3734,
      "warded-For or Server": 3735,
      "wss:// pro": 3736,
      "wist -d example.com": 3737,
      "what is your ": 3738,
      "wpscan --url <url>": 3739,
      "ybroker or": 3740,
      "} payload": 3741,
      "I was cre": 3742,
      "I am your AI ": 3743,
      "owser dev tools": 3744,
      "How do I get the IP address of github": 3745,
      "How do I trace route ": 3746,
      "How do I maintain pers": 3747,
      "How do I view network interfaces?": 3748,
      "How do I verify if a domain us": 3749,
      "How do I escalate pr": 3750,
      "How do I look up domain re": 3751,
      "How do I create a re": 3752,
      "How do I brute-for": 3753,
      "in IP behin": 3754,
      "erlock or maig": 3755,
      "e storag": 3756,
      "e Google Analyti": 3757,
      "e sites?": 3758,
      "e exists on mul": 3759,
      "et RHOSTS <target>": 3760,
      "arp -a": 3761,
      "p notes?": 3762,
      "ors or use domain tools": 3763,
      "exchange metho": 3764,
      "t or truecall": 3765,
      "t | grep DNS": 3766,
      "t certificates?": 3767,
      "reg save HK": 3768,
      "get pods --all-nam": 3769,
      "mazonaws.com ": 3770,
      " strings?": 3771,
      " sort | un": 3772,
      " scan public prox": 3773,
      " spreadsheets?": 3774,
      "attributes": 3775,
      "ated by developers": 3776,
      "or use wss:// pro": 3777,
      "or wayback ma": 3778,
      "or tags": 3779,
      ".com intext:\"card\" \"company\"": 3780,
      "ec smb <target> -u <user>": 3781,
      "s ready to ": 3782,
      "s API endpoints?": 3783,
      "um posts?": 3784,
      " -P <wordlist> s": 3785,
      " -noout": 3786,
      " -text | grep DNS": 3787,
      "access?": 3788,
      "traps?": 3789,
      "trails.com or di": 3790,
      "trate data with ": 3791,
      "nmap -6 -p- target": 3792,
      " for a website?": 3793,
      " for tesla.com?": 3794,
      " for microsoft.com?": 3795,
      " for Shodan search?": 3796,
      "How do I enumerate web technolog": 3797,
      "How do I enumerate login portals?": 3798,
      "How do I enumerate emails from domain.com?": 3799,
      "How do I enumerate SSL/TLS ciphers?": 3800,
      "How do I enumerate Grafana?": 3801,
      "How do I enumerate SNMP info?": 3802,
      "How do I enumerate Redis?": 3803,
      "How do I enumerate running processes?": 3804,
      "How do I enumerate Elasticsearch?": 3805,
      "How do I enumerate RabbitMQ?": 3806,
      "How do I enumerate Zookeeper?": 3807,
      "How do I enumerate GCP buckets?": 3808,
      "url=evil.com": 3809,
      "How do I find HTTP methods support": 3810,
      "How do I find exposed admin panels?": 3811,
      "How do I find IP geolocation": 3812,
      "How do I find archived version": 3813,
      "How do I find breached credential": 3814,
      "How do I find MX records for gmail": 3815,
      "How do I find hidden files on a web": 3816,
      "How do I find PDF files on a site?": 3817,
      "How do I find FTP servers on a subnet?": 3818,
      "How do I find historical DNS records?": 3819,
      "How do I find WHOIS contacts for a domain?": 3820,
      "How do I find technologies used by a site?": 3821,
      "How do I find active hosts on a subnet?": 3822,
      " <keyword>": 3823,
      "How do I check default gateway?": 3824,
      "google dork: \"@company.com\"": 3825,
      "google dork: ext:conf site:example.com": 3826,
      "theHarvester -d": 3827,
      "c markers": 3828,
      "traceroute 1.1.1.1": 3829,
      "How do I exfiltrate data with ": 3830,
      "How do I extract headers from a website?": 3831,
      "How do I extract phone numbers from a webpage?": 3832,
      "How do I extract email addres": 3833,
      "How do I extract SSL cert info?": 3834,
      "How do I extract cookies from HTTP response?": 3835,
      "How do I extract JavaScript endpoints?": 3836,
      "How do I extract DNSSEC info?": 3837,
      "How do I extract favicon hash for Shodan search?": 3838,
      "How do I extract EXIF GPS data from photo.jp": 3839,
      "How do I extract IPs from log": 3840,
      "ustotal.com": 3841,
      "google dork: site:notion.s": 3842,
      "google dork: site:keep.google.com \"company\"": 3843,
      "google dork: site:bitbucket.or": 3844,
      "google dork: site:gitlab.com \"company\"": 3845,
      "google dork: site:trello.com \"company\"": 3846,
      "google dork: site:groups.google.com \"company\"": 3847,
      "google dork: site:meet.google.com \"re": 3848,
      "google dork: site:s3.amazonaws.com ": 3849,
      "the ASN of an IP address?": 3850,
      "profiles linked ": 3851,
      "curl POST with {\"query\":\"{__schema}\"": 3852,
      "How do I check for SQL injection?": 3853,
      "How do I check for CDN caching headers?": 3854,
      "How do I check for Brotli compression?": 3855,
      "How do I check for HSTS enfor": 3856,
      "How do I check for OCSP stap": 3857,
      "How do I check for typosquat": 3858,
      "How do I check for wildcard DNS entries?": 3859,
      "curl --http2 -I https://target.com": 3860,
      "curl -i -X GET": 3861,
      "curl -s http://target.com | wc -": 3862,
      "g +trace": 3863,
      "How do I find public GitLab repos?": 3864,
      "How do I find public exploits for a CVE": 3865,
      "How do I find public Bitbucket repos?": 3866,
      "How do I find public Dropbox links?": 3867,
      "How do I find public Notion pag": 3868,
      "How do I find public RSS feeds?": 3869,
      "How do I find public XML files on a domain?": 3870,
      "How do I find public pastebin dumps?": 3871,
      "How do I fingerprint web server type?": 3872,
      "How do I fingerprint SSH version?": 3873,
      "How do I fingerprint SNMP community": 3874,
      "How do I fingerprint LDAP banner?": 3875,
      "How do I fingerprint HTTP server version?": 3876,
      "How do I fingerprint RPC services?": 3877,
      "How do I fingerprint FTP server type?": 3878,
      "How do I fingerprint Telnet banner?": 3879,
      "How do I fingerprint TLS cipher suites?": 3880,
      "How do I fingerprint CDN provider?": 3881,
      "How do I fingerprint HTTP status code behavior?": 3882,
      "How do I fingerprint CMS type?": 3883,
      "How do I fingerprint IMAP banner?": 3884,
      "How do I fingerprint Kerberos servic": 3885,
      "How do I fingerprint NetBIOS services?": 3886,
      "How do I fingerprint POP3 banner?": 3887,
      "How do I fingerprint XMPP servic": 3888,
      "| grep default": 3889,
      "target.com | grep -i Stric": 3890,
      " ps -a": 3891,
      "help!": 3892,
      "curl -I https://target.com | grep -i Stric": 3893,
      "curl -I -X OPTIONS http://target.com ": 3894,
      "tiple platforms?": 3895,
      "ssh -v user@target.com": 3896,
      "correlate UA codes": 3897,
      "How do I check for open directories on a site?": 3898,
      "How do I check for open phpMyAdmin panels?": 3899,
      "How do I check for open redirect vulnerabilities?": 3900,
      "dig ANY <domain>": 3901,
      "dig _sip._": 3902,
      "dig gmail.com MX": 3903,
      "dig microsoft.com ANY": 3904,
      "dig *.example.com": 3905,
      "dig _dmarc.example.com ": 3906,
      "le web apps?": 3907,
      "use sherlock or maig": 3908,
      "use uptime header": 3909,
      "use hostingchecker": 3910,
      "use wafw00f target.com": 3911,
      "use archive.org ": 3912,
      "use proxybroker or": 3913,
      "use whois or ipinfo.io": 3914,
      "use aquatone or google dork: inurl:admin": 3915,
      "use misconfigured DNS or historic": 3916,
      "use ipinfo.io/8.8.8.8": 3917,
      "use securitytrails.com or di": 3918,
      "use vhost enumeration": 3919,
      "use reverse IP lookup tools": 3920,
      "use getcontact or truecall": 3921,
      "use urlscan.io or vir": 3922,
      "use curl -w '%{time_total}' or br": 3923,
      "How do I check for open NFS ports?": 3924,
      "How do I check for open Jenkins API endpoints?": 3925,
      "How do I check for open MySQL ports?": 3926,
      "How do I check for open SNMP traps?": 3927,
      "How do I check for open VNC ports?": 3928,
      "How do I check for open WebSocket endpoints?": 3929,
      "How do I check for open PostgreSQL ports?": 3930,
      "How do I check for open Oracle DB ports?": 3931,
      "How do I check for open MSSQL ports?": 3932,
      "How do I check for open Redis ports?": 3933,
      "How do I check for open Telnet ports?": 3934,
      "How do I check for open Elasticsearch instances?": 3935,
      "How do I check for open MongoDB instances?": 3936,
      "How do I check for open RabbitMQ ports?": 3937,
      "How do I check for open Zookeeper ports?": 3938,
      "How do I check for open CouchDB ports?": 3939,
      "How do I check for open Kibana dashboards?": 3940,
      "How do I check for open SIP ports?": 3941,
      "google dork: site:example.com filetype:crt": 3942,
      "google dork: site:example.com filetype:yaml": 3943,
      "docker ps -a": 3944,
      "shake?": 3945,
      "showmount -e <target>": 3946,
      " from a DNS response?": 3947,
      "curl -I http://target.com | grep Connection": 3948,
      "curl -I http://target.com | grep ETag": 3949,
      "curl -I http://target.com | grep Location": 3950,
      "curl -I http://target.com | grep Vary": 3951,
      "curl -I http://target.com | grep Accept": 3952,
      "curl -I http://target.com | grep X-Frame-Options": 3953,
      "curl -I http://target.com | grep Last-Modified": 3954,
      "curl -I http://target.com | grep Referrer-Policy": 3955,
      "curl -I http://target.com | grep report-uri": 3956,
      " indicators": 3957,
      " in front of a site?": 3958,
      "How do I find public Google Groups threads?": 3959,
      "How do I find public Google Jamboard links?": 3960,
      "How do I find public Google Keep notes?": 3961,
      "How do I find public Google Meet recordings?": 3962,
      "es, and error pag": 3963,
      "How do I extract DNS TXT records?": 3964,
      "How do I extract DNS URI records?": 3965,
      "How do I extract DNS NS records?": 3966,
      "How do I extract DNS SOA records?": 3967,
      "How do I extract DNS NAPTR records?": 3968,
      "How do I extract DNS SRV records?": 3969,
      "How do I extract DNS TTL values?": 3970,
      "How do I extract DNS DNAME records?": 3971,
      "How do I extract DNS APL records?": 3972,
      "How do I extract DNS AAAA records?": 3973,
      "How do I extract DNS SSHFP records?": 3974,
      "How do I extract DNS CERT records?": 3975,
      "How do I extract DNS CNAME records?": 3976,
      "How do I extract DNS HINFO records?": 3977,
      "How do I extract DNS LOC records?": 3978,
      "dig example.com SOA": 3979,
      "dig example.com NAPTR": 3980,
      "dig example.com SSHFP": 3981,
      " crafted UR": 3982,
      " credentials?": 3983,
      "fields?": 3984,
      "ipts and DOM s": 3985,
      "user handles": 3986,
      "net user /domain": 3987,
      "How do I check for exposed Git directories?": 3988,
      "search site:trello.com intext:\"card\" \"company\"": 3989,
      "search crt.sh for domain.com": 3990,
      "se for user@example.com": 3991,
      "nmap -p 1-65535 target.com": 3992,
      "sponse headers for CDN indicators": 3993,
      "How do I check for exposed .crt certificates?": 3994,
      "How do I check for exposed .conf files?": 3995,
      "How do I check for exposed .pem certificates?": 3996,
      "How do I check for exposed .git/config files?": 3997,
      "How do I check for exposed .mdb files?": 3998,
      "How do I check for exposed .rar archives?": 3999,
      "How do I check for exposed .svn directories?": 4000,
      "How do I check for exposed .DS_Store files?": 4001,
      "How do I check for exposed .tar.gz archives?": 4002,
      "How do I check for exposed .zip archives?": 4003,
      "ect OS via nmap?": 4004,
      "nmap -p 3000 <target>": 4005,
      "nmap -p 5060 target.com": 4006,
      "nmap -p 5222 target.com": 4007,
      "How do I find public .bak files on a domain?": 4008,
      "How do I find public .sql dumps?": 4009,
      "How do I find public .xml config files?": 4010,
      "How do I find public .json API responses?": 4011,
      "How do I find public .csv dataset": 4012,
      "How do I find public .xls spreadsheets?": 4013,
      "How do I find public .yaml config files?": 4014,
      "How do I find public .ini config files?": 4015,
      "How do I find public .docx documents?": 4016,
      "ed scripts and DOM s": 4017,
      "y lists": 4018,
      "How do I extract the TTL from a DNS response?": 4019,
      "How do I extract the Set-Cookie flags?": 4020,
      "How do I extract the X-Powered-By header?": 4021,
      "How do I extract the HTTP status code for a re": 4022,
      "How do I extract the SANs from an SSL cert?": 4023,
      "How do I extract the server IP from a domain?": 4024,
      "How do I extract the public key from an SSL cert?": 4025,
      "How do I extract the HTTP ETag header?": 4026,
      "How do I extract the HTTP Vary header?": 4027,
      "How do I extract the HTTP Accept headers?": 4028,
      "How do I extract the HTTP Allow header?": 4029,
      "How do I extract the HTTP X-Frame-Options header?": 4030,
      "How do I extract the HTTP Last-Modified header?": 4031,
      "How do I extract the HTTP Retry-After header?": 4032,
      "How do I extract the HTTP referrer policy": 4033,
      "IP via misconfigured DNS?": 4034,
      "IP block?": 4035,
      "acklisted?": 4036,
      "ackMapExec for ": 4037,
      "How do I fingerprint the backend language of a site?": 4038,
      "How do I fingerprint the JavaScript framework used?": 4039,
      "How do I fingerprint the load balancer type?": 4040,
      "How do I fingerprint the session cookie structure?": 4041,
      "How do I fingerprint the HTTP keep-alive behavior?": 4042,
      "How do I fingerprint the HTTP caching behavior?": 4043,
      "How do I fingerprint the HTTP redirect behavior?": 4044,
      "confidential\"": 4045,
      " tools like ff": 4046,
      "ing the same Google Analyti": 4047,
      "How do I check if email user@example.com wa": 4048,
      "How do I check if a username exists on mul": 4049,
      "hosts in a subnet?": 4050,
      "hostbin, and s": 4051,
      "board [Jenkins]\"": 4052,
      " of 8.8.8.8?": 4053,
      "assistant.": 4054,
      "crt.sh?": 4055,
      "crackmapexec smb <target> -u <user>": 4056,
      "ed on same IP?": 4057,
      "to social media?": 4058,
      "google dork: site:example.com ext:env": 4059,
      "google dork: site:example.com \".git\"": 4060,
      "google dork: site:example.com intitle:\"index of\"": 4061,
      "list-users --no-sign-request": 4062,
      "How do I check TLS versions support": 4063,
      "How do I check SSH banner?": 4064,
      "How do I check SNMP version on": 4065,
      "How do I check SSL certificate det": 4066,
      "How do I check DNS records for microsoft.com?": 4067,
      "How do I check SPF records for domain.com?": 4068,
      "How do I check open ports with netcat?": 4069,
      " domain.com -b all": 4070,
      " http://target.com/nonexistent": 4071,
      "How do I fingerprint the HTTP response language?": 4072,
      "How do I fingerprint the HTTP response charset?": 4073,
      "How do I fingerprint the HTTP response freshness?": 4074,
      "How do I fingerprint the HTTP response size?": 4075,
      "How do I fingerprint the HTTP response encoding?": 4076,
      "nc target.com 389": 4077,
      "inspect loaded scripts and DOM s": 4078,
      "inspect cache headers and ": 4079,
      "inspect HTML source ": 4080,
      "inspect Set-Cookie and decode ": 4081,
      "inspect JS or use wss:// pro": 4082,
      "google dork: site:docs.google.com intext:\"confidential\"": 4083,
      "]{2,}\\b' page.html": 4084,
      "es DMARC?": 4085,
      "for nonce attributes": 4086,
      "istence on Linux?": 4087,
      "look for parking page indicat": 4088,
      "who made you?": 4089,
      "How do I scan ports on target.com?": 4090,
      "How do I scan all ports on a target with ": 4091,
      "How do I find the ASN owner of an ": 4092,
      "How do I find the backend IP via misconfigured DNS?": 4093,
      "How do I find the TLS cipher suite used?": 4094,
      "How do I find the favicon hash of a site?": 4095
    },
    "merges": [
      [
        " ",
        "d"
      ],
      [
        " d",
        "o"
      ],
      [
        "I",
        " "
      ],
      [
        "o",
        "w"
      ],
      [
        "H",
        "ow"
      ],
      [
        " ",
        "I "
      ],
      [
        "How",
        " do"
      ],
      [
        "How do",
        " I "
      ],
      [
        "i",
        "n"
      ],
      [
        "c",
        "o"
      ],
      [
        "e",
        "r"
      ],
      [
        "e",
        " "
      ],
      [
        "co",
        "m"
      ],
      [
        "e",
        "t"
      ],
      [
        "a",
        "r"
      ],
      [
        ".",
        "com"
      ],
      [
        "p",
        " "
      ],
      [
        "o",
        "r"
      ],
      [
        "l",
        "e"
      ],
      [
        "e",
        "n"
      ],
      [
        "e",
        "x"
      ],
      [
        "t",
        " "
      ],
      [
        "r",
        "e"
      ],
      [
        "s",
        "?"
      ],
      [
        "g",
        "et"
      ],
      [
        "t",
        "ar"
      ],
      [
        "tar",
        "get"
      ],
      [
        "m",
        "a"
      ],
      [
        " ",
        "f"
      ],
      [
        "i",
        "t"
      ],
      [
        " ",
        "s"
      ],
      [
        "o",
        "o"
      ],
      [
        "a",
        "t"
      ],
      [
        "d",
        " "
      ],
      [
        "f",
        "in"
      ],
      [
        "c",
        "h"
      ],
      [
        "How do I ",
        "fin"
      ],
      [
        "oo",
        "g"
      ],
      [
        "or",
        " "
      ],
      [
        ".com",
        " "
      ],
      [
        "e",
        "c"
      ],
      [
        "o",
        "n"
      ],
      [
        "p ",
        "-"
      ],
      [
        "s",
        " "
      ],
      [
        "a",
        "m"
      ],
      [
        "u",
        "m"
      ],
      [
        "it",
        "e"
      ],
      [
        " ",
        "-"
      ],
      [
        "g",
        "oog"
      ],
      [
        "goog",
        "le"
      ],
      [
        "a",
        "n"
      ],
      [
        "a",
        "c"
      ],
      [
        "l",
        "i"
      ],
      [
        "u",
        "r"
      ],
      [
        "n",
        "ma"
      ],
      [
        "t",
        "r"
      ],
      [
        "at",
        "e "
      ],
      [
        "en",
        "um"
      ],
      [
        "nma",
        "p -"
      ],
      [
        " s",
        "ite"
      ],
      [
        "enum",
        "er"
      ],
      [
        "u",
        "b"
      ],
      [
        "How do I ",
        "enumer"
      ],
      [
        " f",
        "or "
      ],
      [
        "How do I enumer",
        "ate "
      ],
      [
        "ch",
        "ec"
      ],
      [
        "ur",
        "l"
      ],
      [
        "chec",
        "k"
      ],
      [
        "How do I fin",
        "d "
      ],
      [
        " ",
        "<"
      ],
      [
        "How do I ",
        "check"
      ],
      [
        "k",
        ":"
      ],
      [
        "r",
        "k:"
      ],
      [
        " do",
        "rk:"
      ],
      [
        "nmap -",
        "p "
      ],
      [
        "google",
        " dork:"
      ],
      [
        "am",
        "p"
      ],
      [
        "ex",
        "amp"
      ],
      [
        "examp",
        "le"
      ],
      [
        "t",
        "h"
      ],
      [
        " site",
        ":"
      ],
      [
        "c",
        " "
      ],
      [
        "tr",
        "ac"
      ],
      [
        "target",
        ">"
      ],
      [
        "How do I ",
        "ex"
      ],
      [
        "trac",
        "t "
      ],
      [
        "P",
        " "
      ],
      [
        "How do I ex",
        "tract "
      ],
      [
        "u",
        "s"
      ],
      [
        " <",
        "target>"
      ],
      [
        "google dork:",
        " site:"
      ],
      [
        " ",
        "a"
      ],
      [
        "d",
        "i"
      ],
      [
        "h",
        "t"
      ],
      [
        "th",
        "e "
      ],
      [
        "/",
        "/"
      ],
      [
        "target",
        ".com"
      ],
      [
        "p",
        "ub"
      ],
      [
        ":",
        "//"
      ],
      [
        "p",
        "r"
      ],
      [
        "pub",
        "li"
      ],
      [
        "c",
        "url"
      ],
      [
        "t",
        "p"
      ],
      [
        "How do I check",
        " for "
      ],
      [
        "ht",
        "tp"
      ],
      [
        "publi",
        "c "
      ],
      [
        "ma",
        "in"
      ],
      [
        "g",
        "re"
      ],
      [
        "s",
        "t"
      ],
      [
        "i",
        "l"
      ],
      [
        "o",
        "p"
      ],
      [
        "curl",
        " -"
      ],
      [
        "a",
        "d"
      ],
      [
        "http",
        "://"
      ],
      [
        "S",
        " "
      ],
      [
        "l",
        "o"
      ],
      [
        "s",
        "e"
      ],
      [
        "|",
        " "
      ],
      [
        "g",
        " "
      ],
      [
        "g",
        "er"
      ],
      [
        "in",
        "t "
      ],
      [
        "How do I fin",
        "ger"
      ],
      [
        "How do I find ",
        "public "
      ],
      [
        "pr",
        "int "
      ],
      [
        "op",
        "en"
      ],
      [
        "How do I finger",
        "print "
      ],
      [
        "H",
        "T"
      ],
      [
        "| ",
        "gre"
      ],
      [
        "D",
        "N"
      ],
      [
        "target",
        ".com "
      ],
      [
        " ",
        "p"
      ],
      [
        " do",
        "main"
      ],
      [
        "HT",
        "T"
      ],
      [
        "h",
        "e"
      ],
      [
        "example",
        ".com"
      ],
      [
        "curl -",
        "I "
      ],
      [
        "d",
        "s?"
      ],
      [
        "s",
        "p"
      ],
      [
        "a",
        "l"
      ],
      [
        "t",
        "i"
      ],
      [
        "e",
        "s?"
      ],
      [
        "p",
        "e"
      ],
      [
        "r",
        "o"
      ],
      [
        "example",
        ".com "
      ],
      [
        "HTT",
        "P "
      ],
      [
        "p",
        "o"
      ],
      [
        "s",
        "s"
      ],
      [
        "co",
        "r"
      ],
      [
        "http://",
        "target.com "
      ],
      [
        " ",
        "re"
      ],
      [
        "co",
        "n"
      ],
      [
        "or",
        "t"
      ],
      [
        "How do I check for ",
        "open"
      ],
      [
        "| gre",
        "p "
      ],
      [
        " ",
        "target.com"
      ],
      [
        "y",
        "pe"
      ],
      [
        "di",
        "g "
      ],
      [
        "l",
        "e "
      ],
      [
        "com",
        "p"
      ],
      [
        "DN",
        "S "
      ],
      [
        "curl -I ",
        "http://target.com "
      ],
      [
        "us",
        "e "
      ],
      [
        "v",
        "i"
      ],
      [
        "v",
        "er"
      ],
      [
        "it",
        "h"
      ],
      [
        "ad",
        "er"
      ],
      [
        "he",
        "ader"
      ],
      [
        "an",
        "y"
      ],
      [
        "How do I check for open",
        " "
      ],
      [
        "a",
        "g"
      ],
      [
        "h",
        "o"
      ],
      [
        "et",
        "ype"
      ],
      [
        "ar",
        "ch"
      ],
      [
        " f",
        "il"
      ],
      [
        "s ",
        "on"
      ],
      [
        "google dork: site:",
        "example.com"
      ],
      [
        "the ",
        "HTTP "
      ],
      [
        "comp",
        "any"
      ],
      [
        "etype",
        ":"
      ],
      [
        " fil",
        "etype:"
      ],
      [
        "google dork: site:example.com",
        " filetype:"
      ],
      [
        "d",
        "o"
      ],
      [
        "e",
        "b"
      ],
      [
        "s",
        "h"
      ],
      [
        "ro",
        "m"
      ],
      [
        "G",
        "oog"
      ],
      [
        "i",
        "le"
      ],
      [
        " f",
        "rom"
      ],
      [
        "curl -I http://target.com ",
        "| grep "
      ],
      [
        "Goog",
        "le "
      ],
      [
        " ",
        "in"
      ],
      [
        ".",
        "google"
      ],
      [
        "o",
        " "
      ],
      [
        "w",
        "ith"
      ],
      [
        "se",
        "d "
      ],
      [
        "How do I find public ",
        "Google "
      ],
      [
        "cor",
        "ds?"
      ],
      [
        "e",
        "s"
      ],
      [
        "i",
        "on"
      ],
      [
        "k",
        "e"
      ],
      [
        "ex",
        "po"
      ],
      [
        "\"",
        "company"
      ],
      [
        "o",
        "f"
      ],
      [
        " f",
        "ile"
      ],
      [
        "How do I extract ",
        "DNS "
      ],
      [
        "dig ",
        "example.com "
      ],
      [
        "expo",
        "sed "
      ],
      [
        "\"company",
        "\""
      ],
      [
        " ",
        "c"
      ],
      [
        "4",
        "4"
      ],
      [
        "S",
        "S"
      ],
      [
        "e",
        "?"
      ],
      [
        "f",
        "i"
      ],
      [
        "i",
        "p"
      ],
      [
        "en",
        "t"
      ],
      [
        "us",
        "er"
      ],
      [
        " a",
        " domain"
      ],
      [
        "lo",
        "g"
      ],
      [
        " p",
        "ort"
      ],
      [
        " ",
        "i"
      ],
      [
        "n",
        "et"
      ],
      [
        "s",
        "c"
      ],
      [
        "How do I check for ",
        "exposed "
      ],
      [
        "se",
        "arch"
      ],
      [
        "0",
        " <target>"
      ],
      [
        "s",
        "e "
      ],
      [
        "w",
        "eb"
      ],
      [
        "nmap -p ",
        "2"
      ],
      [
        "http://",
        "target.com"
      ],
      [
        "c",
        "k"
      ],
      [
        "h",
        "a"
      ],
      [
        "u",
        "p"
      ],
      [
        "nmap -p ",
        "1"
      ],
      [
        "sp",
        "on"
      ],
      [
        "ss",
        "l"
      ],
      [
        " re",
        "cords?"
      ],
      [
        ".google",
        ".com "
      ],
      [
        "How do I check for exposed ",
        "."
      ],
      [
        ":",
        "\""
      ],
      [
        "b",
        "a"
      ],
      [
        "er",
        "ver"
      ],
      [
        "re",
        "spon"
      ],
      [
        "ec",
        "t "
      ],
      [
        "with",
        " "
      ],
      [
        " ",
        "http://target.com"
      ],
      [
        "Q",
        "L"
      ],
      [
        "b",
        "o"
      ],
      [
        "c",
        "at"
      ],
      [
        "l",
        "in"
      ],
      [
        "r",
        "a"
      ],
      [
        "t ",
        "-"
      ],
      [
        " site",
        "?"
      ],
      [
        "nmap -p ",
        "3"
      ],
      [
        "nmap -p ",
        "5"
      ],
      [
        " a",
        " "
      ],
      [
        " a",
        " site?"
      ],
      [
        "How do I find public ",
        "."
      ],
      [
        " file",
        "s?"
      ],
      [
        "8",
        "."
      ],
      [
        "A",
        "P"
      ],
      [
        "a",
        "ch"
      ],
      [
        "d",
        "s"
      ],
      [
        "e",
        "d"
      ],
      [
        "e",
        "ma"
      ],
      [
        "i",
        "v"
      ],
      [
        "p",
        "ort"
      ],
      [
        "w",
        "or"
      ],
      [
        "y",
        " "
      ],
      [
        "How do I extract ",
        "the "
      ],
      [
        "How do I extract ",
        "the HTTP "
      ],
      [
        "| gre",
        "p -"
      ],
      [
        "do",
        "main"
      ],
      [
        " a domain",
        "?"
      ],
      [
        "sc",
        "an"
      ],
      [
        " ",
        "an"
      ],
      [
        "1",
        "."
      ],
      [
        "1",
        " <target>"
      ],
      [
        "C",
        "on"
      ],
      [
        "I",
        "P "
      ],
      [
        "b",
        "u"
      ],
      [
        "b",
        "an"
      ],
      [
        "d",
        "en"
      ],
      [
        "e",
        "l"
      ],
      [
        "f",
        "o"
      ],
      [
        "n",
        "er"
      ],
      [
        "p",
        "h"
      ],
      [
        "q",
        "u"
      ],
      [
        "in",
        "t"
      ],
      [
        "re",
        "c"
      ],
      [
        " f",
        "or"
      ],
      [
        "oo",
        "k"
      ],
      [
        "at",
        "a"
      ],
      [
        "ac",
        "k"
      ],
      [
        "url",
        ":"
      ],
      [
        "How do I fingerprint ",
        "the "
      ],
      [
        "How do I fingerprint ",
        "the HTTP "
      ],
      [
        "con",
        "fi"
      ],
      [
        "header",
        "?"
      ],
      [
        "do",
        "c"
      ],
      [
        " i",
        "f"
      ],
      [
        "respon",
        "se "
      ],
      [
        "| grep -",
        "i"
      ],
      [
        " ",
        "t"
      ],
      [
        ".",
        "i"
      ],
      [
        "P",
        " s"
      ],
      [
        "T",
        "L"
      ],
      [
        "i",
        "c"
      ],
      [
        "i",
        "es?"
      ],
      [
        "m",
        "l"
      ],
      [
        "m",
        "p"
      ],
      [
        "s",
        " from"
      ],
      [
        "t",
        "ent"
      ],
      [
        "u",
        "l"
      ],
      [
        "in",
        "g "
      ],
      [
        "How do I check",
        " if"
      ],
      [
        "google dork:",
        " in"
      ],
      [
        "ho",
        "st"
      ],
      [
        "log",
        "in"
      ],
      [
        " port",
        "s?"
      ],
      [
        "bo",
        "ar"
      ],
      [
        "ema",
        "il"
      ],
      [
        "Con",
        "tent"
      ],
      [
        "den",
        "ti"
      ],
      [
        "confi",
        "g"
      ],
      [
        "Content",
        "-"
      ],
      [
        " ",
        "of"
      ],
      [
        "9",
        " <target>"
      ],
      [
        "A",
        "A"
      ],
      [
        "S",
        "N"
      ],
      [
        "a",
        "st"
      ],
      [
        "a",
        "ss"
      ],
      [
        "c",
        "r"
      ],
      [
        "e",
        "-"
      ],
      [
        "e",
        "d "
      ],
      [
        "s",
        "ite"
      ],
      [
        "t",
        "o"
      ],
      [
        "t",
        "er"
      ],
      [
        "u",
        "n"
      ],
      [
        "u",
        "t"
      ],
      [
        " d",
        "e"
      ],
      [
        "in",
        "g"
      ],
      [
        "ex",
        "t"
      ],
      [
        "re",
        "s"
      ],
      [
        "nmap -p ",
        "8"
      ],
      [
        "google dork: site:",
        "example.com "
      ],
      [
        "di",
        "g"
      ],
      [
        "pr",
        "o"
      ],
      [
        "open",
        "ssl"
      ],
      [
        "ti",
        "on"
      ],
      [
        "ke",
        "y"
      ],
      [
        "44",
        "3"
      ],
      [
        "ck",
        "et"
      ],
      [
        ".google.com ",
        "\"company\""
      ],
      [
        "ba",
        "k"
      ],
      [
        "-",
        "9"
      ],
      [
        "0",
        "0"
      ],
      [
        "0",
        "8"
      ],
      [
        "0",
        "-9"
      ],
      [
        "4",
        "3"
      ],
      [
        "A",
        "M"
      ],
      [
        "P",
        "?"
      ],
      [
        "S",
        "M"
      ],
      [
        "S",
        "QL"
      ],
      [
        "a",
        "b"
      ],
      [
        "c",
        "li"
      ],
      [
        "e",
        "."
      ],
      [
        "e",
        "st"
      ],
      [
        "l",
        "s"
      ],
      [
        "m",
        "et"
      ],
      [
        "n",
        "c "
      ],
      [
        "s",
        "ion"
      ],
      [
        "u",
        "x"
      ],
      [
        "in",
        "sp"
      ],
      [
        "co",
        "d"
      ],
      [
        ".com",
        "?"
      ],
      [
        "en",
        "t -"
      ],
      [
        "li",
        "st"
      ],
      [
        "How do I check",
        " "
      ],
      [
        "google dork: site:",
        "doc"
      ],
      [
        " p",
        "ag"
      ],
      [
        " domain",
        ".com "
      ],
      [
        "ti",
        "m"
      ],
      [
        "ver",
        "sion"
      ],
      [
        "o ",
        "'"
      ],
      [
        "How do I find public Google ",
        "S"
      ],
      [
        " http://target.com",
        "/"
      ],
      [
        "nmap -p 3",
        "3"
      ],
      [
        "How do I fingerprint the HTTP ",
        "response "
      ],
      [
        "TL",
        "S "
      ],
      [
        "nmap -p 8",
        "08"
      ],
      [
        "cli",
        "ent -"
      ],
      [
        "nc ",
        "target.com "
      ],
      [
        "insp",
        "ect "
      ],
      [
        "google dork: site:doc",
        "s"
      ],
      [
        "nmap -p 808",
        "0 <target>"
      ],
      [
        " ",
        "I"
      ],
      [
        "0",
        "."
      ],
      [
        ":",
        "443"
      ],
      [
        "A",
        "N"
      ],
      [
        "B",
        "?"
      ],
      [
        "C",
        "DN"
      ],
      [
        "E",
        "o '"
      ],
      [
        "J",
        "en"
      ],
      [
        "N",
        "F"
      ],
      [
        "T",
        "X"
      ],
      [
        "]",
        "{"
      ],
      [
        "a",
        " "
      ],
      [
        "a",
        "p"
      ],
      [
        "b",
        "e"
      ],
      [
        "c",
        " -"
      ],
      [
        "d",
        "f"
      ],
      [
        "e",
        "p"
      ],
      [
        "e",
        "s "
      ],
      [
        "f",
        "or"
      ],
      [
        "f",
        "or "
      ],
      [
        "i",
        "s "
      ],
      [
        "i",
        "st"
      ],
      [
        "k",
        "in"
      ],
      [
        "l",
        "lo"
      ],
      [
        "l",
        "ook"
      ],
      [
        "n",
        "o"
      ],
      [
        "n",
        "am"
      ],
      [
        "o",
        "s"
      ],
      [
        "p",
        "ag"
      ],
      [
        "q",
        "l"
      ],
      [
        "s",
        "t "
      ],
      [
        "s",
        " for "
      ],
      [
        "s",
        "he"
      ],
      [
        "t",
        "or"
      ],
      [
        "w",
        "a"
      ],
      [
        "w",
        "ho"
      ],
      [
        " d",
        "ata"
      ],
      [
        "How do I ",
        "scan"
      ],
      [
        "in",
        "url:"
      ],
      [
        ".com",
        "/"
      ],
      [
        "re",
        "ad"
      ],
      [
        "re",
        "cords?"
      ],
      [
        " s",
        "ub"
      ],
      [
        " -",
        "v"
      ],
      [
        "an",
        "c"
      ],
      [
        "an",
        "g"
      ],
      [
        "url",
        ">"
      ],
      [
        "How do I find ",
        "the "
      ],
      [
        "di",
        "rec"
      ],
      [
        "cor",
        "ds"
      ],
      [
        "curl -I http://target.com ",
        "| grep -i"
      ],
      [
        "s on",
        " a domain?"
      ],
      [
        ".google",
        ".com/"
      ],
      [
        " c",
        "er"
      ],
      [
        "lin",
        "k"
      ],
      [
        "8.",
        "8."
      ],
      [
        "bu",
        "cket"
      ],
      [
        "ban",
        "ner"
      ],
      [
        "boar",
        "ds?"
      ],
      [
        "SN",
        "M"
      ],
      [
        "bak",
        "."
      ],
      [
        "google dork: site:docs",
        ".google.com/"
      ],
      [
        "Jen",
        "kin"
      ],
      [
        "TX",
        "T"
      ],
      [
        "banner",
        "?"
      ],
      [
        " ",
        "user"
      ],
      [
        " ",
        "with "
      ],
      [
        "-",
        "-"
      ],
      [
        "/",
        "2"
      ],
      [
        "0",
        "0 <target>"
      ],
      [
        "3",
        "7"
      ],
      [
        "3",
        "}"
      ],
      [
        "8",
        "9 <target>"
      ],
      [
        "C",
        "S"
      ],
      [
        "D",
        "o"
      ],
      [
        "G",
        "it"
      ],
      [
        "P",
        "o"
      ],
      [
        "R",
        "D"
      ],
      [
        "X",
        " "
      ],
      [
        "X",
        "-"
      ],
      [
        "[",
        "0-9"
      ],
      [
        "]",
        "+"
      ],
      [
        "_",
        "client -"
      ],
      [
        "a",
        "in"
      ],
      [
        "a",
        "sh"
      ],
      [
        "c",
        "e "
      ],
      [
        "c",
        "re"
      ],
      [
        "d",
        "e"
      ],
      [
        "d",
        "er"
      ],
      [
        "f",
        "a"
      ],
      [
        "g",
        "ith"
      ],
      [
        "h",
        "ar"
      ],
      [
        "i",
        "g"
      ],
      [
        "i",
        "s"
      ],
      [
        "j",
        "s"
      ],
      [
        "k",
        "i"
      ],
      [
        "l",
        "l"
      ],
      [
        "m",
        "in"
      ],
      [
        "n",
        "ect "
      ],
      [
        "p",
        "ass"
      ],
      [
        "r",
        "am"
      ],
      [
        "s",
        "n"
      ],
      [
        "s",
        "ql"
      ],
      [
        "t",
        "o "
      ],
      [
        "u",
        "re"
      ],
      [
        "x",
        "ml"
      ],
      [
        "y",
        "o"
      ],
      [
        "y",
        "z"
      ],
      [
        " d",
        "i"
      ],
      [
        "How do I ",
        "search"
      ],
      [
        "in",
        "d"
      ],
      [
        "in",
        "fo"
      ],
      [
        "er",
        "vi"
      ],
      [
        "e ",
        "header"
      ],
      [
        " s",
        "up"
      ],
      [
        " s",
        "_client -"
      ],
      [
        " s",
        "har"
      ],
      [
        "at",
        "ion"
      ],
      [
        "How do I fin",
        "d"
      ],
      [
        "p -",
        "Eo '"
      ],
      [
        "li",
        "st "
      ],
      [
        "How do I enumerate ",
        "K"
      ],
      [
        " <",
        "url>"
      ],
      [
        "target.com",
        ":443"
      ],
      [
        "curl",
        " http://target.com/"
      ],
      [
        "gre",
        "p -Eo '"
      ],
      [
        "HTT",
        "P s"
      ],
      [
        "con",
        "nect "
      ],
      [
        "header",
        "s?"
      ],
      [
        "arch",
        "iv"
      ],
      [
        "s on",
        " "
      ],
      [
        " from",
        " "
      ],
      [
        "curl -I http://target.com | grep ",
        "Content-"
      ],
      [
        "SS",
        "H"
      ],
      [
        "SS",
        "L"
      ],
      [
        "ip",
        "t "
      ],
      [
        "net",
        "?"
      ],
      [
        " a ",
        "web"
      ],
      [
        "ed",
        "?"
      ],
      [
        "port",
        "s?"
      ],
      [
        " an",
        " "
      ],
      [
        "int",
        "ext"
      ],
      [
        "How do I check if",
        " a domain"
      ],
      [
        "denti",
        "al"
      ],
      [
        "config",
        " files?"
      ],
      [
        "google dork: site:example.com ",
        "inurl:"
      ],
      [
        "dig",
        " domain.com "
      ],
      [
        "openssl",
        " s_client -"
      ],
      [
        "who",
        "is "
      ],
      [
        "direc",
        "t "
      ],
      [
        "[0-9",
        "]{"
      ],
      [
        "gith",
        "ub"
      ],
      [
        "How do I search",
        " for "
      ],
      [
        "ervi",
        "c"
      ],
      [
        " sup",
        "port"
      ],
      [
        "connect ",
        "target.com:443"
      ],
      [
        "intext",
        ":\""
      ],
      [
        "openssl s_client -",
        "connect target.com:443"
      ],
      [
        " ",
        "\""
      ],
      [
        " ",
        "'"
      ],
      [
        " ",
        "or "
      ],
      [
        " ",
        "ha"
      ],
      [
        " ",
        "header?"
      ],
      [
        " ",
        "pro"
      ],
      [
        "'",
        " pag"
      ],
      [
        "-",
        "C"
      ],
      [
        ".",
        "g"
      ],
      [
        ".",
        "mp"
      ],
      [
        "0",
        "6"
      ],
      [
        "2",
        " target.com"
      ],
      [
        "3",
        " "
      ],
      [
        "3",
        " <target>"
      ],
      [
        "5",
        " <target>"
      ],
      [
        "<",
        "target>"
      ],
      [
        "C",
        "?"
      ],
      [
        "F",
        "T"
      ],
      [
        "G",
        "ra"
      ],
      [
        "I",
        "O"
      ],
      [
        "M",
        "L"
      ],
      [
        "M",
        "y"
      ],
      [
        "O",
        "P"
      ],
      [
        "O",
        "r"
      ],
      [
        "S",
        "?"
      ],
      [
        "S",
        "T"
      ],
      [
        "S",
        "et"
      ],
      [
        "S",
        "erver"
      ],
      [
        "T",
        "el"
      ],
      [
        "U",
        "R"
      ],
      [
        "_",
        "ip"
      ],
      [
        "a",
        "v"
      ],
      [
        "a",
        " domain"
      ],
      [
        "b",
        "er"
      ],
      [
        "b",
        "re"
      ],
      [
        "d",
        "po"
      ],
      [
        "e",
        "di"
      ],
      [
        "f",
        "t"
      ],
      [
        "f",
        "y "
      ],
      [
        "i",
        "p "
      ],
      [
        "i",
        "t "
      ],
      [
        "i",
        "denti"
      ],
      [
        "j",
        "p"
      ],
      [
        "k",
        "er"
      ],
      [
        "l",
        " "
      ],
      [
        "m",
        "b"
      ],
      [
        "n",
        "s"
      ],
      [
        "o",
        ".mp"
      ],
      [
        "p",
        "lo"
      ],
      [
        "r",
        "iv"
      ],
      [
        "s",
        "v"
      ],
      [
        "t",
        "."
      ],
      [
        "t",
        "es"
      ],
      [
        "t",
        "ack"
      ],
      [
        "u",
        "ag"
      ],
      [
        " d",
        "um"
      ],
      [
        " d",
        "ash"
      ],
      [
        "How do I ",
        "list "
      ],
      [
        "How do I ",
        "identi"
      ],
      [
        "or",
        "?"
      ],
      [
        "or",
        "s"
      ],
      [
        "or",
        "t "
      ],
      [
        "le",
        ":\""
      ],
      [
        "en",
        "v"
      ],
      [
        "en",
        "dpo"
      ],
      [
        "ex",
        "plo"
      ],
      [
        "re",
        "llo"
      ],
      [
        "it",
        "y"
      ],
      [
        "it",
        "le:\""
      ],
      [
        "oo",
        "l"
      ],
      [
        "s ",
        "in"
      ],
      [
        "s ",
        "or "
      ],
      [
        "s ",
        "of"
      ],
      [
        "s ",
        "with "
      ],
      [
        " -",
        "-"
      ],
      [
        "li",
        "c"
      ],
      [
        "tr",
        "u"
      ],
      [
        " site:",
        "example.com"
      ],
      [
        "How do I extract ",
        "met"
      ],
      [
        "us",
        "e"
      ],
      [
        "google dork: site:",
        "site"
      ],
      [
        "ht",
        "ml"
      ],
      [
        "ad",
        "ata"
      ],
      [
        "ad",
        "min"
      ],
      [
        "lo",
        "ad"
      ],
      [
        "al",
        " "
      ],
      [
        "po",
        "s?"
      ],
      [
        " re",
        "cords"
      ],
      [
        "con",
        "f"
      ],
      [
        "con",
        "t"
      ],
      [
        "ype",
        "?"
      ],
      [
        "dig ",
        "+"
      ],
      [
        "vi",
        "con"
      ],
      [
        "vi",
        "or?"
      ],
      [
        "s on",
        " a site?"
      ],
      [
        "google dork: site:example.com filetype:",
        "p"
      ],
      [
        "ke",
        "d "
      ],
      [
        "ke",
        "ep"
      ],
      [
        " file",
        "s on a domain?"
      ],
      [
        " c",
        "ach"
      ],
      [
        "user",
        "nam"
      ],
      [
        " port",
        "s on"
      ],
      [
        " i",
        "s "
      ],
      [
        "ck",
        "er"
      ],
      [
        "ha",
        "vior?"
      ],
      [
        "cat",
        "?"
      ],
      [
        "nmap -p 5",
        "9"
      ],
      [
        "AP",
        "?"
      ],
      [
        "wor",
        "ds"
      ],
      [
        "How do I extract the ",
        "CS"
      ],
      [
        " an",
        "d "
      ],
      [
        "1.",
        "1."
      ],
      [
        "ban",
        "a"
      ],
      [
        "qu",
        "er"
      ],
      [
        "int",
        "s?"
      ],
      [
        " for",
        " domain"
      ],
      [
        "ook",
        "i"
      ],
      [
        ".i",
        "o "
      ],
      [
        "s from",
        " a web"
      ],
      [
        "google dork: in",
        "url:"
      ],
      [
        "ut",
        "e "
      ],
      [
        "AM",
        "E"
      ],
      [
        "SQL",
        "?"
      ],
      [
        "e.",
        "html"
      ],
      [
        "version",
        "?"
      ],
      [
        "How do I find public Google S",
        "ite"
      ],
      [
        "nc target.com ",
        "2"
      ],
      [
        "0.",
        "0."
      ],
      [
        "AN",
        "Y"
      ],
      [
        "be",
        "havior?"
      ],
      [
        "How do I scan",
        " for "
      ],
      [
        "ang",
        "uag"
      ],
      [
        "link",
        "s?"
      ],
      [
        "SNM",
        "P "
      ],
      [
        "js",
        "on"
      ],
      [
        "ram",
        "e-"
      ],
      [
        " di",
        "rec"
      ],
      [
        "SSL",
        " cer"
      ],
      [
        "' pag",
        "e.html"
      ],
      [
        "-C",
        "ooki"
      ],
      [
        "Set",
        "-Cooki"
      ],
      [
        "a domain",
        "?"
      ],
      [
        "bre",
        "ach"
      ],
      [
        " dash",
        "boards?"
      ],
      [
        "How do I identi",
        "fy "
      ],
      [
        "endpo",
        "ints?"
      ],
      [
        "explo",
        "it"
      ],
      [
        "How do I extract met",
        "adata"
      ],
      [
        "google dork: site:site",
        "s"
      ],
      [
        " ",
        "/"
      ],
      [
        " ",
        "1"
      ],
      [
        " ",
        "us"
      ],
      [
        " ",
        "example.com"
      ],
      [
        " ",
        "email"
      ],
      [
        " ",
        "version?"
      ],
      [
        " ",
        "links?"
      ],
      [
        "%",
        "{"
      ],
      [
        "-",
        "Z"
      ],
      [
        "-",
        "z"
      ],
      [
        "0",
        "4"
      ],
      [
        "2",
        " <target>"
      ],
      [
        "2",
        "c -"
      ],
      [
        "2",
        "00 <target>"
      ],
      [
        "5",
        "2"
      ],
      [
        "9",
        " target.com"
      ],
      [
        "A",
        "P "
      ],
      [
        "A",
        "-Z"
      ],
      [
        "D",
        "B"
      ],
      [
        "D",
        "B?"
      ],
      [
        "E",
        "T"
      ],
      [
        "F",
        "or"
      ],
      [
        "H",
        "ub"
      ],
      [
        "L",
        "D"
      ],
      [
        "L",
        "o"
      ],
      [
        "L",
        "in"
      ],
      [
        "M",
        "X"
      ],
      [
        "M",
        "SS"
      ],
      [
        "N",
        "S "
      ],
      [
        "O",
        "ST"
      ],
      [
        "S",
        "O"
      ],
      [
        "T",
        "R"
      ],
      [
        "T",
        "IO"
      ],
      [
        "V",
        "N"
      ],
      [
        "W",
        "eb"
      ],
      [
        "[",
        "^"
      ],
      [
        "[",
        "A-Z"
      ],
      [
        "\\",
        "."
      ],
      [
        "_",
        "s"
      ],
      [
        "a",
        "w"
      ],
      [
        "a",
        "-z"
      ],
      [
        "b",
        "r"
      ],
      [
        "b",
        "y"
      ],
      [
        "b",
        "it"
      ],
      [
        "b",
        "ack"
      ],
      [
        "c",
        "t"
      ],
      [
        "c",
        "um"
      ],
      [
        "c",
        "ip"
      ],
      [
        "c",
        "ach"
      ],
      [
        "d",
        "n"
      ],
      [
        "d",
        "res"
      ],
      [
        "e",
        "\""
      ],
      [
        "e",
        "e"
      ],
      [
        "e",
        "ch"
      ],
      [
        "f",
        "ac"
      ],
      [
        "g",
        "?"
      ],
      [
        "g",
        "o"
      ],
      [
        "h",
        "i"
      ],
      [
        "h",
        "er"
      ],
      [
        "h",
        "at"
      ],
      [
        "i",
        "ft"
      ],
      [
        "k",
        "e "
      ],
      [
        "k",
        " -v"
      ],
      [
        "l",
        "a"
      ],
      [
        "l",
        "ar"
      ],
      [
        "l",
        "at"
      ],
      [
        "l",
        "anguag"
      ],
      [
        "m",
        "s?"
      ],
      [
        "m",
        "s "
      ],
      [
        "n",
        "on"
      ],
      [
        "o",
        "ki"
      ],
      [
        "p",
        "-"
      ],
      [
        "p",
        "."
      ],
      [
        "p",
        "e "
      ],
      [
        "p",
        "ar"
      ],
      [
        "p",
        "s?"
      ],
      [
        "s",
        "et"
      ],
      [
        "s",
        "ub"
      ],
      [
        "s",
        "://"
      ],
      [
        "s",
        "mb"
      ],
      [
        "t",
        "?"
      ],
      [
        "t",
        "al"
      ],
      [
        "t",
        "itle:\""
      ],
      [
        "u",
        "df"
      ],
      [
        "v",
        "/"
      ],
      [
        "v",
        "e "
      ],
      [
        "v",
        "ul"
      ],
      [
        "w",
        "al"
      ],
      [
        "w",
        " '"
      ],
      [
        "w",
        "hat"
      ],
      [
        "z",
        "on"
      ],
      [
        "}",
        "'"
      ],
      [
        " do",
        "cum"
      ],
      [
        "How",
        " c"
      ],
      [
        "How do",
        " I"
      ],
      [
        "co",
        "oki"
      ],
      [
        "er",
        "r"
      ],
      [
        "er",
        "net"
      ],
      [
        "er",
        "_ip"
      ],
      [
        "e ",
        "or "
      ],
      [
        "com",
        "m"
      ],
      [
        "et",
        "s "
      ],
      [
        "en",
        "tr"
      ],
      [
        "ex",
        "ift"
      ],
      [
        "re",
        "direct "
      ],
      [
        "it",
        "e "
      ],
      [
        " s",
        "e"
      ],
      [
        " s",
        "o"
      ],
      [
        " s",
        "erver"
      ],
      [
        " s",
        "ervic"
      ],
      [
        "oo",
        "ls"
      ],
      [
        "at",
        "tack"
      ],
      [
        ".com ",
        "or "
      ],
      [
        ".com ",
        "\"company\""
      ],
      [
        "ec",
        "ur"
      ],
      [
        "ec",
        "tion"
      ],
      [
        "s ",
        "-"
      ],
      [
        "s ",
        "an"
      ],
      [
        "s ",
        "li"
      ],
      [
        " -",
        "p "
      ],
      [
        "an",
        "d"
      ],
      [
        "an",
        " I "
      ],
      [
        "an",
        "al"
      ],
      [
        "ac",
        "le "
      ],
      [
        "ub",
        "ernet"
      ],
      [
        "How do I enumerate ",
        "open"
      ],
      [
        "How do I enumerate ",
        "HTTP "
      ],
      [
        "How do I enumerate ",
        "SM"
      ],
      [
        "How do I enumerate ",
        "NF"
      ],
      [
        "How do I enumerate ",
        "Do"
      ],
      [
        "How do I find ",
        "login"
      ],
      [
        "How do I extract ",
        "usernam"
      ],
      [
        "google dork: site:",
        "d"
      ],
      [
        " a",
        " sub"
      ],
      [
        "di",
        "cat"
      ],
      [
        "http",
        "s://"
      ],
      [
        "st",
        "gre"
      ],
      [
        "il",
        "t"
      ],
      [
        "curl -",
        "X "
      ],
      [
        "lo",
        "it "
      ],
      [
        "lo",
        "udf"
      ],
      [
        "se",
        "?"
      ],
      [
        "How do I fingerprint ",
        "HTTP "
      ],
      [
        "HT",
        "ML"
      ],
      [
        " p",
        "o"
      ],
      [
        " p",
        "ast"
      ],
      [
        "curl -I ",
        "--"
      ],
      [
        "sp",
        "loit "
      ],
      [
        "ti",
        "fi"
      ],
      [
        "pe",
        "m"
      ],
      [
        "ss",
        "ion"
      ],
      [
        "cor",
        "d"
      ],
      [
        " re",
        "pos?"
      ],
      [
        "vi",
        "a "
      ],
      [
        "vi",
        "der"
      ],
      [
        "How do I check for open ",
        "Gra"
      ],
      [
        "eb",
        "in"
      ],
      [
        " in",
        "ter"
      ],
      [
        "How do I find public Google ",
        "C"
      ],
      [
        "es",
        " from "
      ],
      [
        "of",
        " a site?"
      ],
      [
        "nmap -p 2",
        "1"
      ],
      [
        "nmap -p 2",
        "04"
      ],
      [
        "nmap -p 1",
        "6"
      ],
      [
        "nmap -p 1",
        "43"
      ],
      [
        "nmap -p 1",
        "52"
      ],
      [
        "ssl",
        "scan"
      ],
      [
        "How do I check for exposed .",
        "bak."
      ],
      [
        "ba",
        "sh"
      ],
      [
        "lin",
        "ux"
      ],
      [
        "nmap -p 5",
        "6"
      ],
      [
        "nmap -p 5",
        "43"
      ],
      [
        "8.",
        "8"
      ],
      [
        "AP",
        "I "
      ],
      [
        "ed",
        "-"
      ],
      [
        "wor",
        "k"
      ],
      [
        "How do I extract the HTTP ",
        "Content-"
      ],
      [
        "domain",
        ">"
      ],
      [
        "bu",
        "ilt"
      ],
      [
        "ner",
        "ab"
      ],
      [
        "ph",
        "p"
      ],
      [
        "qu",
        "at"
      ],
      [
        "qu",
        "est"
      ],
      [
        "How do I fingerprint the ",
        "TLS "
      ],
      [
        " t",
        "ype?"
      ],
      [
        ".i",
        "o"
      ],
      [
        "mp",
        "wal"
      ],
      [
        "google dork: in",
        "title:\""
      ],
      [
        "cr",
        "ipt "
      ],
      [
        "ed ",
        "by"
      ],
      [
        "to",
        "tal"
      ],
      [
        " de",
        "fa"
      ],
      [
        "ext",
        ":"
      ],
      [
        "met",
        "ho"
      ],
      [
        "cod",
        "e "
      ],
      [
        "nmap -p 33",
        "89 <target>"
      ],
      [
        "nmap -p 33",
        "06"
      ],
      [
        "TLS ",
        "cip"
      ],
      [
        "pag",
        "e?"
      ],
      [
        "s for ",
        "a domain?"
      ],
      [
        "wa",
        "y"
      ],
      [
        "read",
        "she"
      ],
      [
        " sub",
        "domain"
      ],
      [
        "curl -I http://target.com | grep -i",
        " "
      ],
      [
        "curl -I http://target.com | grep -i",
        " cach"
      ],
      [
        "8.8.",
        "8.8"
      ],
      [
        "bucket",
        "s?"
      ],
      [
        "Jenkin",
        "s"
      ],
      [
        "/2",
        "4"
      ],
      [
        "Git",
        "Hub"
      ],
      [
        "Po",
        "stgre"
      ],
      [
        "cre",
        "dential"
      ],
      [
        "de",
        "v/"
      ],
      [
        "ig",
        "n"
      ],
      [
        "sn",
        "mpwal"
      ],
      [
        "yz",
        "e header"
      ],
      [
        "ind",
        "ex"
      ],
      [
        "How do I enumerate K",
        "ubernet"
      ],
      [
        "HTTP s",
        "erver"
      ],
      [
        "archiv",
        "es?"
      ],
      [
        "How do I check if a domain",
        " is "
      ],
      [
        "google dork: site:example.com inurl:",
        "bak."
      ],
      [
        " support",
        "?"
      ],
      [
        "OP",
        "TIO"
      ],
      [
        "Or",
        "acle "
      ],
      [
        "lic",
        "y"
      ],
      [
        "tru",
        "ct"
      ],
      [
        "cont",
        "ac"
      ],
      [
        "How do I extract the CS",
        "P "
      ],
      [
        "quer",
        "y"
      ],
      [
        ".io ",
        "or "
      ],
      [
        "s from a web",
        "page?"
      ],
      [
        " direc",
        "tor"
      ],
      [
        "How do I identify ",
        "the "
      ],
      [
        "google dork: site:sites",
        ".google.com "
      ],
      [
        "2c -",
        "c "
      ],
      [
        "Lin",
        "ux"
      ],
      [
        "MSS",
        "QL"
      ],
      [
        "k -v",
        "2c -c "
      ],
      [
        "vul",
        "nerab"
      ],
      [
        "w '",
        "%{"
      ],
      [
        "what",
        "web"
      ],
      [
        " docum",
        "ent"
      ],
      [
        "How c",
        "an I "
      ],
      [
        "er_ip",
        ">"
      ],
      [
        "entr",
        "ies?"
      ],
      [
        "exift",
        "ool"
      ],
      [
        "attack",
        "er_ip>"
      ],
      [
        "ecur",
        "ity"
      ],
      [
        "s an",
        "d "
      ],
      [
        "s li",
        "ke "
      ],
      [
        "anal",
        "yze header"
      ],
      [
        "How do I enumerate Do",
        "cker"
      ],
      [
        " a sub",
        "net?"
      ],
      [
        "loudf",
        "lar"
      ],
      [
        "tifi",
        "cat"
      ],
      [
        " defa",
        "ul"
      ],
      [
        "TLS cip",
        "her"
      ],
      [
        "snmpwal",
        "k -v2c -c "
      ],
      [
        "truct",
        "ure"
      ],
      [
        " ",
        ">"
      ],
      [
        " ",
        "S"
      ],
      [
        " ",
        "x"
      ],
      [
        " ",
        "ma"
      ],
      [
        " ",
        "//"
      ],
      [
        " ",
        "public "
      ],
      [
        " ",
        "| grep "
      ],
      [
        " ",
        "\"company\""
      ],
      [
        " ",
        "up"
      ],
      [
        " ",
        "key"
      ],
      [
        " ",
        "boards?"
      ],
      [
        " ",
        "banner?"
      ],
      [
        " ",
        "config files?"
      ],
      [
        " ",
        "ker"
      ],
      [
        " ",
        "endpoints?"
      ],
      [
        " ",
        "cooki"
      ],
      [
        " ",
        "8.8.8.8"
      ],
      [
        " ",
        "archives?"
      ],
      [
        "\"",
        ":\""
      ],
      [
        "\"",
        "]+"
      ],
      [
        "\"",
        "query"
      ],
      [
        "'",
        "m"
      ],
      [
        ",",
        "3}"
      ],
      [
        "-",
        "A"
      ],
      [
        "-",
        "M"
      ],
      [
        "-",
        "s"
      ],
      [
        "-",
        "re"
      ],
      [
        "-",
        "sc"
      ],
      [
        "-",
        "Po"
      ],
      [
        "-",
        "]+"
      ],
      [
        "-",
        "[0-9]{"
      ],
      [
        ".",
        "1"
      ],
      [
        ".",
        "_"
      ],
      [
        ".",
        "s"
      ],
      [
        ".",
        "t"
      ],
      [
        ".",
        "or"
      ],
      [
        ".",
        "jp"
      ],
      [
        "/",
        "<"
      ],
      [
        "/",
        "dev/"
      ],
      [
        "0",
        "1"
      ],
      [
        "0",
        "2"
      ],
      [
        "0",
        "9"
      ],
      [
        "0",
        "/24"
      ],
      [
        "1",
        " target.com"
      ],
      [
        "1",
        ",3}"
      ],
      [
        "2",
        ".1"
      ],
      [
        "3",
        " target.com"
      ],
      [
        "4",
        "9"
      ],
      [
        "4",
        " <target>"
      ],
      [
        "4",
        "linux"
      ],
      [
        "5",
        " target.com"
      ],
      [
        "5",
        "0 <target>"
      ],
      [
        "5",
        "09"
      ],
      [
        "6",
        "8."
      ],
      [
        "6",
        "37"
      ],
      [
        "7",
        "00"
      ],
      [
        "7",
        "01"
      ],
      [
        "9",
        "2.1"
      ],
      [
        "@",
        "example.com"
      ],
      [
        "@",
        "ns"
      ],
      [
        "A",
        "R"
      ],
      [
        "A",
        "c"
      ],
      [
        "A",
        " records?"
      ],
      [
        "A",
        "SN"
      ],
      [
        "A",
        "ll"
      ],
      [
        "B",
        "os"
      ],
      [
        "B",
        " shar"
      ],
      [
        "C",
        "E"
      ],
      [
        "C",
        "N"
      ],
      [
        "C",
        "V"
      ],
      [
        "C",
        "it"
      ],
      [
        "C",
        "AA"
      ],
      [
        "C",
        "loudflar"
      ],
      [
        "D",
        "F"
      ],
      [
        "D",
        "S"
      ],
      [
        "D",
        "i"
      ],
      [
        "D",
        "riv"
      ],
      [
        "E",
        "l"
      ],
      [
        "F",
        "rame-"
      ],
      [
        "G",
        "P"
      ],
      [
        "H",
        "I"
      ],
      [
        "I",
        "D"
      ],
      [
        "J",
        "av"
      ],
      [
        "J",
        "Bos"
      ],
      [
        "L",
        "O"
      ],
      [
        "L",
        "en"
      ],
      [
        "L",
        "ast"
      ],
      [
        "L",
        " -v"
      ],
      [
        "L",
        " //"
      ],
      [
        "M",
        "Q"
      ],
      [
        "M",
        "on"
      ],
      [
        "N",
        "S"
      ],
      [
        "N",
        "AP"
      ],
      [
        "O",
        "p"
      ],
      [
        "P",
        "ow"
      ],
      [
        "P",
        "/2"
      ],
      [
        "P",
        "OST"
      ],
      [
        "P",
        "DF"
      ],
      [
        "R",
        "P"
      ],
      [
        "R",
        "T"
      ],
      [
        "R",
        "V"
      ],
      [
        "R",
        "et"
      ],
      [
        "R",
        "ab"
      ],
      [
        "R",
        "edi"
      ],
      [
        "S",
        "ph"
      ],
      [
        "S",
        "AM"
      ],
      [
        "S",
        "tor"
      ],
      [
        "S",
        "AP?"
      ],
      [
        "S",
        "cript "
      ],
      [
        "S",
        "ecurity"
      ],
      [
        "S",
        "RV"
      ],
      [
        "T",
        "o"
      ],
      [
        "T",
        "TL"
      ],
      [
        "T",
        "rello"
      ],
      [
        "V",
        "ar"
      ],
      [
        "W",
        "ind"
      ],
      [
        "Z",
        "oo"
      ],
      [
        "\\",
        "b"
      ],
      [
        "_",
        "_s"
      ],
      [
        "_",
        "total"
      ],
      [
        "_",
        "Stor"
      ],
      [
        "a",
        "?"
      ],
      [
        "a",
        "le"
      ],
      [
        "a",
        "il"
      ],
      [
        "a",
        " re"
      ],
      [
        "a",
        "vicon"
      ],
      [
        "a",
        "ked "
      ],
      [
        "a",
        "quat"
      ],
      [
        "a",
        "Script "
      ],
      [
        "b",
        "in"
      ],
      [
        "c",
        ">"
      ],
      [
        "c",
        "i"
      ],
      [
        "c",
        "ar"
      ],
      [
        "c",
        "s "
      ],
      [
        "c",
        "am"
      ],
      [
        "c",
        "es"
      ],
      [
        "c",
        "ep"
      ],
      [
        "c",
        "sv"
      ],
      [
        "d",
        "?"
      ],
      [
        "d",
        "b"
      ],
      [
        "d",
        "ar"
      ],
      [
        "d",
        "ra"
      ],
      [
        "e",
        "et"
      ],
      [
        "e",
        "mp"
      ],
      [
        "e",
        "s on a site?"
      ],
      [
        "e",
        "_total"
      ],
      [
        "f",
        "r"
      ],
      [
        "f",
        "an"
      ],
      [
        "f",
        "ile"
      ],
      [
        "f",
        "ter"
      ],
      [
        "f",
        "err"
      ],
      [
        "g",
        "ma"
      ],
      [
        "g",
        "it"
      ],
      [
        "g",
        "th"
      ],
      [
        "g",
        "ic"
      ],
      [
        "g",
        "e."
      ],
      [
        "g",
        "is"
      ],
      [
        "h",
        "y"
      ],
      [
        "h",
        "un"
      ],
      [
        "h",
        "ist"
      ],
      [
        "h",
        "and"
      ],
      [
        "i",
        "k"
      ],
      [
        "i",
        "m"
      ],
      [
        "i",
        "x"
      ],
      [
        "i",
        "ra"
      ],
      [
        "i",
        "bana"
      ],
      [
        "l",
        " -"
      ],
      [
        "l",
        "ass"
      ],
      [
        "l",
        "der"
      ],
      [
        "m",
        "o"
      ],
      [
        "m",
        "ar"
      ],
      [
        "m",
        "ic"
      ],
      [
        "m",
        "is"
      ],
      [
        "m",
        "edi"
      ],
      [
        "m",
        "cat?"
      ],
      [
        "m",
        "db"
      ],
      [
        "n",
        "um"
      ],
      [
        "n",
        "al"
      ],
      [
        "n",
        "el"
      ],
      [
        "n",
        "ul"
      ],
      [
        "n",
        "c -"
      ],
      [
        "n",
        "dar"
      ],
      [
        "o",
        "di"
      ],
      [
        "p",
        "?"
      ],
      [
        "p",
        "y"
      ],
      [
        "p",
        "res"
      ],
      [
        "r",
        "y"
      ],
      [
        "r",
        "ar"
      ],
      [
        "r",
        "oo"
      ],
      [
        "r",
        "op"
      ],
      [
        "r",
        "un"
      ],
      [
        "r",
        "ipt "
      ],
      [
        "r",
        "ix"
      ],
      [
        "s",
        "d"
      ],
      [
        "s",
        "co"
      ],
      [
        "s",
        "it"
      ],
      [
        "s",
        ".com "
      ],
      [
        "s",
        "of"
      ],
      [
        "s",
        "tructure"
      ],
      [
        "t",
        "c"
      ],
      [
        "t",
        "l"
      ],
      [
        "t",
        "at"
      ],
      [
        "t",
        "rello"
      ],
      [
        "t",
        "emp"
      ],
      [
        "u",
        "?"
      ],
      [
        "u",
        "p "
      ],
      [
        "u",
        "s "
      ],
      [
        "u",
        "th"
      ],
      [
        "u",
        "di"
      ],
      [
        "v",
        "6"
      ],
      [
        "v",
        "al"
      ],
      [
        "v",
        "Sph"
      ],
      [
        "x",
        "ls"
      ],
      [
        "x",
        "fr"
      ],
      [
        "y",
        "am"
      ],
      [
        "{",
        "\"query"
      ],
      [
        "{",
        "__s"
      ],
      [
        "}",
        "\""
      ],
      [
        " d",
        "et"
      ],
      [
        "ow",
        "s?"
      ],
      [
        "How do I ",
        "use "
      ],
      [
        "in",
        "i"
      ],
      [
        "in",
        "dicat"
      ],
      [
        "er",
        "s"
      ],
      [
        "er",
        "e?"
      ],
      [
        "er",
        "ber"
      ],
      [
        "er",
        "ed-"
      ],
      [
        "e ",
        "fo"
      ],
      [
        "e ",
        "yo"
      ],
      [
        "e ",
        "of a site?"
      ],
      [
        "e ",
        "num"
      ],
      [
        "et",
        "s?"
      ],
      [
        "ar",
        "set"
      ],
      [
        ".com",
        "\""
      ],
      [
        "or",
        "ic"
      ],
      [
        "le",
        "aked "
      ],
      [
        "en",
        "d "
      ],
      [
        "en",
        "sit"
      ],
      [
        "ex",
        "ist"
      ],
      [
        "re",
        "p"
      ],
      [
        "re",
        "sh"
      ],
      [
        "re",
        "cords"
      ],
      [
        "re",
        "ssion"
      ],
      [
        "tar",
        ".g"
      ],
      [
        "ma",
        "p."
      ],
      [
        "ma",
        "ge."
      ],
      [
        " f",
        "ee"
      ],
      [
        " f",
        "avicon"
      ],
      [
        "it",
        "ion"
      ],
      [
        "it",
        "ies?"
      ],
      [
        " s",
        "u"
      ],
      [
        " s",
        "am"
      ],
      [
        " s",
        "ensit"
      ],
      [
        "at",
        "e"
      ],
      [
        "d ",
        "DNS "
      ],
      [
        "ch",
        "ema"
      ],
      [
        "ch",
        "ain"
      ],
      [
        "ch",
        "arset"
      ],
      [
        "ec",
        " example.com"
      ],
      [
        "on",
        "e num"
      ],
      [
        "s ",
        "--"
      ],
      [
        "am",
        " "
      ],
      [
        "am",
        "boar"
      ],
      [
        " -",
        "d"
      ],
      [
        " -",
        "i"
      ],
      [
        " -",
        "d "
      ],
      [
        "an",
        "el"
      ],
      [
        "li",
        "ve "
      ],
      [
        "ur",
        " "
      ],
      [
        "nma",
        "p?"
      ],
      [
        "tr",
        "o"
      ],
      [
        "enum",
        "4linux"
      ],
      [
        "nmap -",
        "sn"
      ],
      [
        "nmap -",
        "p-"
      ],
      [
        "nmap -",
        "-sc"
      ],
      [
        "How do I enumerate ",
        "A"
      ],
      [
        "How do I enumerate ",
        "public "
      ],
      [
        "How do I enumerate ",
        "DNS "
      ],
      [
        "How do I enumerate ",
        "user"
      ],
      [
        "How do I enumerate ",
        "SNM"
      ],
      [
        "How do I enumerate ",
        "Jenkin"
      ],
      [
        "How do I enumerate ",
        "RD"
      ],
      [
        "How do I enumerate ",
        "FT"
      ],
      [
        "How do I enumerate ",
        "My"
      ],
      [
        "How do I enumerate ",
        "Tel"
      ],
      [
        "How do I enumerate ",
        "LD"
      ],
      [
        "How do I enumerate ",
        "VN"
      ],
      [
        "How do I enumerate ",
        "Web"
      ],
      [
        "How do I enumerate ",
        "Postgre"
      ],
      [
        "How do I enumerate ",
        "Oracle "
      ],
      [
        "How do I enumerate ",
        "MSSQL"
      ],
      [
        "How do I enumerate ",
        "Cit"
      ],
      [
        "How do I enumerate ",
        "JBos"
      ],
      [
        "How do I enumerate ",
        "SAP?"
      ],
      [
        "How do I enumerate ",
        "To"
      ],
      [
        "How do I enumerate ",
        "vSph"
      ],
      [
        "url",
        ":\""
      ],
      [
        "check",
        "er"
      ],
      [
        "How do I find ",
        "open"
      ],
      [
        "How do I find ",
        "the HTTP "
      ],
      [
        "How do I find ",
        "email"
      ],
      [
        "How do I find ",
        "leaked "
      ],
      [
        " <",
        "user"
      ],
      [
        " <",
        "domain>"
      ],
      [
        " <",
        "attacker_ip>"
      ],
      [
        "How do I check",
        " for"
      ],
      [
        "nmap -p ",
        "44"
      ],
      [
        "nmap -p ",
        "443"
      ],
      [
        "nmap -p ",
        "637"
      ],
      [
        "nmap -p ",
        "700"
      ],
      [
        "th",
        "on"
      ],
      [
        "th",
        "read"
      ],
      [
        "P ",
        "records?"
      ],
      [
        "P ",
        "ports?"
      ],
      [
        "How do I extract ",
        "link"
      ],
      [
        "us",
        "ing "
      ],
      [
        "google dork: site:",
        "c"
      ],
      [
        "google dork: site:",
        "j"
      ],
      [
        " a",
        "ll"
      ],
      [
        " a",
        "udi"
      ],
      [
        " a",
        "xfr"
      ],
      [
        "di",
        "sco"
      ],
      [
        "://",
        "<target>"
      ],
      [
        "http",
        "2"
      ],
      [
        "st",
        "anc"
      ],
      [
        "il",
        "ities?"
      ],
      [
        "curl -",
        "o "
      ],
      [
        "curl -",
        "L -v"
      ],
      [
        "ad",
        "dres"
      ],
      [
        "lo",
        "ck"
      ],
      [
        "lo",
        "c>"
      ],
      [
        "se",
        "s?"
      ],
      [
        "g ",
        "| grep "
      ],
      [
        "How do I find public ",
        "J"
      ],
      [
        "How do I fingerprint ",
        "SM"
      ],
      [
        "DN",
        "SS"
      ],
      [
        "DN",
        "S?"
      ],
      [
        "DN",
        "AME"
      ],
      [
        " p",
        "h"
      ],
      [
        " p",
        "ho"
      ],
      [
        " p",
        "anel"
      ],
      [
        "HTT",
        "P/2"
      ],
      [
        "he",
        "llo"
      ],
      [
        "curl -I ",
        "http://target.com"
      ],
      [
        "sp",
        "os"
      ],
      [
        "sp",
        "readshe"
      ],
      [
        "al",
        "l"
      ],
      [
        "al",
        "l "
      ],
      [
        "ro",
        "up"
      ],
      [
        "ro",
        "ute "
      ],
      [
        "ro",
        "sof"
      ],
      [
        "ss",
        "ec example.com"
      ],
      [
        " re",
        "cord"
      ],
      [
        "How do I check for open",
        " ports on"
      ],
      [
        " target.com",
        "?"
      ],
      [
        "comp",
        "res"
      ],
      [
        "comp",
        "ression"
      ],
      [
        "DNS ",
        "records"
      ],
      [
        "use ",
        "ssl"
      ],
      [
        "use ",
        "built"
      ],
      [
        "use ",
        "hun"
      ],
      [
        "vi",
        "r"
      ],
      [
        "vi",
        "de"
      ],
      [
        "ver",
        "se "
      ],
      [
        "header",
        "s for "
      ],
      [
        "How do I check for open ",
        "RD"
      ],
      [
        "ag",
        "e "
      ],
      [
        "s on",
        " a subnet?"
      ],
      [
        "google dork: site:example.com filetype:",
        "xml"
      ],
      [
        "google dork: site:example.com filetype:",
        "json"
      ],
      [
        "sh",
        "ort "
      ],
      [
        "curl -I http://target.com | grep ",
        "Server"
      ],
      [
        "curl -I http://target.com | grep ",
        "Set-Cooki"
      ],
      [
        " in",
        "fo"
      ],
      [
        " in",
        "stanc"
      ],
      [
        "with",
        " sensit"
      ],
      [
        "How do I find public Google ",
        "Do"
      ],
      [
        "How do I find public Google ",
        "For"
      ],
      [
        "How do I find public Google ",
        "Driv"
      ],
      [
        "dig example.com ",
        "| grep -i"
      ],
      [
        "dig example.com ",
        "TXT"
      ],
      [
        "44",
        "44"
      ],
      [
        "ip",
        "info"
      ],
      [
        "ent",
        "ation"
      ],
      [
        "user",
        "@example.com"
      ],
      [
        " port",
        "al"
      ],
      [
        " i",
        "mage."
      ],
      [
        "net",
        "cat?"
      ],
      [
        "net",
        "work"
      ],
      [
        "sc",
        "ra"
      ],
      [
        "search",
        " "
      ],
      [
        "search",
        " past"
      ],
      [
        "search",
        "sploit "
      ],
      [
        "web",
        "cam"
      ],
      [
        "nmap -p 2",
        "1 <target>"
      ],
      [
        "nmap -p 2",
        "37"
      ],
      [
        "nmap -p 2",
        "3 <target>"
      ],
      [
        "nmap -p 2",
        "701"
      ],
      [
        "ha",
        "t "
      ],
      [
        "ha",
        "sh"
      ],
      [
        "ha",
        "she"
      ],
      [
        "nmap -p 1",
        "02"
      ],
      [
        "nmap -p 1",
        "49"
      ],
      [
        ".google.com ",
        "intext:\""
      ],
      [
        "respon",
        "se?"
      ],
      [
        "bo",
        "x"
      ],
      [
        "cat",
        "ion"
      ],
      [
        "lin",
        "ked "
      ],
      [
        "nmap -p 3",
        "89 <target>"
      ],
      [
        "nmap -p 3",
        "200 <target>"
      ],
      [
        " a ",
        "host"
      ],
      [
        "How do I find public .",
        "p"
      ],
      [
        "AP",
        "L"
      ],
      [
        "iv",
        "e "
      ],
      [
        "wor",
        "d"
      ],
      [
        "y ",
        "header?"
      ],
      [
        "1.",
        "1"
      ],
      [
        "1.",
        "0/24"
      ],
      [
        "IP ",
        "look"
      ],
      [
        "IP ",
        "addres"
      ],
      [
        "ph",
        "QL"
      ],
      [
        "How do I fingerprint the ",
        "HTTP server"
      ],
      [
        "doc",
        "x"
      ],
      [
        " t",
        "ools"
      ],
      [
        " t",
        "tl"
      ],
      [
        ".i",
        "co"
      ],
      [
        "P s",
        "erver"
      ],
      [
        "ic",
        "search"
      ],
      [
        "ing ",
        "pro"
      ],
      [
        "ing ",
        "headers?"
      ],
      [
        "How do I check if",
        " a"
      ],
      [
        "google dork: in",
        "url:\""
      ],
      [
        "config",
        "ure"
      ],
      [
        " of",
        "\""
      ],
      [
        " of",
        " a domain?"
      ],
      [
        " of",
        " an "
      ],
      [
        "AA",
        "AA"
      ],
      [
        "ast",
        "icsearch"
      ],
      [
        "site",
        "?"
      ],
      [
        "to",
        ".jp"
      ],
      [
        "ter",
        ".io or "
      ],
      [
        " de",
        "v"
      ],
      [
        "ing",
        "?"
      ],
      [
        "ing",
        "s?"
      ],
      [
        "dig",
        " axfr"
      ],
      [
        "pro",
        "x"
      ],
      [
        "openssl",
        " x"
      ],
      [
        "SQL",
        " ports?"
      ],
      [
        "est",
        "ors"
      ],
      [
        "tim",
        "e_total"
      ],
      [
        "How do I find public Google S",
        "he"
      ],
      [
        "client -",
        "L //"
      ],
      [
        "nc target.com ",
        "1"
      ],
      [
        "inspect ",
        "response "
      ],
      [
        " I",
        "P"
      ],
      [
        "0.",
        "5"
      ],
      [
        "CDN",
        " pro"
      ],
      [
        "NF",
        "O"
      ],
      [
        "ap",
        "i"
      ],
      [
        "es ",
        "with "
      ],
      [
        "for",
        "ms "
      ],
      [
        "no",
        "log"
      ],
      [
        "no",
        "-s"
      ],
      [
        " data",
        "ba"
      ],
      [
        "anc",
        "estors"
      ],
      [
        "google dork: site:docs.google.com/",
        "spreadshe"
      ],
      [
        "google dork: site:docs.google.com/",
        "forms "
      ],
      [
        " user",
        "@"
      ],
      [
        "3}",
        "-[0-9]{"
      ],
      [
        "X-",
        "Frame-"
      ],
      [
        "X-",
        "Pow"
      ],
      [
        "fa",
        "vicon"
      ],
      [
        "ki",
        "bana"
      ],
      [
        "pass",
        "words"
      ],
      [
        "yo",
        "ur "
      ],
      [
        "yz",
        "e or "
      ],
      [
        "info",
        "?"
      ],
      [
        "How do I find",
        " domain"
      ],
      [
        "How do I find",
        " subdomain"
      ],
      [
        "HTTP s",
        "tat"
      ],
      [
        "s on ",
        "Wind"
      ],
      [
        "SSH",
        "F"
      ],
      [
        " an ",
        "SSL cer"
      ],
      [
        "How do I check if a domain",
        " ha"
      ],
      [
        "dig domain.com ",
        "ANY"
      ],
      [
        "whois ",
        "or "
      ],
      [
        "[0-9]{",
        "1,3}"
      ],
      [
        "How do I search for ",
        "public "
      ],
      [
        " ha",
        "sh"
      ],
      [
        ".g",
        "it"
      ],
      [
        "3 ",
        "buckets?"
      ],
      [
        "FT",
        "P server"
      ],
      [
        "Tel",
        "net"
      ],
      [
        "UR",
        "I"
      ],
      [
        "ip ",
        "a"
      ],
      [
        "o.mp",
        "3"
      ],
      [
        "o.mp",
        "4"
      ],
      [
        "riv",
        "e"
      ],
      [
        "sv",
        "n"
      ],
      [
        "t.",
        "sh"
      ],
      [
        "tes",
        "la"
      ],
      [
        " dum",
        "p "
      ],
      [
        " dum",
        "ps?"
      ],
      [
        "env",
        " files?"
      ],
      [
        "use",
        " d"
      ],
      [
        " records",
        " for "
      ],
      [
        "dig +",
        "dn"
      ],
      [
        "dig +",
        "short "
      ],
      [
        "google dork: site:example.com filetype:p",
        "df"
      ],
      [
        "keep",
        "er"
      ],
      [
        "nmap -p 59",
        "00 <target>"
      ],
      [
        "1.1.",
        "1.1"
      ],
      [
        " for domain",
        ".com?"
      ],
      [
        "google dork: inurl:",
        "admin"
      ],
      [
        "How do I find public Google Site",
        "s "
      ],
      [
        "How do I find public Google Site",
        "s with "
      ],
      [
        "0.0.",
        "0.5"
      ],
      [
        "rame-",
        "ancestors"
      ],
      [
        "Set-Cooki",
        "e "
      ],
      [
        "How do I extract metadata",
        " from"
      ],
      [
        "How do I extract metadata",
        " from "
      ],
      [
        " 1",
        "92.1"
      ],
      [
        "AP ",
        "banner?"
      ],
      [
        "DB",
        " ports?"
      ],
      [
        "Lo",
        "gic"
      ],
      [
        "NS ",
        "http://target.com "
      ],
      [
        "TR",
        " records?"
      ],
      [
        "[A-Z",
        "a-z"
      ],
      [
        "bit",
        "MQ"
      ],
      [
        "back",
        "end "
      ],
      [
        "ech",
        "nolog"
      ],
      [
        "fac",
        "es?"
      ],
      [
        "non",
        "ce "
      ],
      [
        "pe ",
        "HTML"
      ],
      [
        "smb",
        "client -L //"
      ],
      [
        "How do I",
        " dump "
      ],
      [
        "redirect ",
        "chain"
      ],
      [
        "ite ",
        "us"
      ],
      [
        " se",
        "arch"
      ],
      [
        " so",
        "ci"
      ],
      [
        " servic",
        "es?"
      ],
      [
        "ection",
        "?"
      ],
      [
        "s -",
        "w '%{"
      ],
      [
        "How do I enumerate HTTP ",
        "headers?"
      ],
      [
        "How do I enumerate SM",
        "B?"
      ],
      [
        "How do I enumerate NF",
        "S?"
      ],
      [
        "How do I extract usernam",
        "es from "
      ],
      [
        "google dork: site:d",
        "rive"
      ],
      [
        "https://",
        "target.com"
      ],
      [
        "curl -X ",
        "OPTIO"
      ],
      [
        "curl -I --",
        "compres"
      ],
      [
        "How do I check for open Gra",
        "phQL"
      ],
      [
        " inter",
        "faces?"
      ],
      [
        "nmap -p 21",
        "8"
      ],
      [
        "nmap -p 204",
        "9 <target>"
      ],
      [
        "nmap -p 16",
        "1 <target>"
      ],
      [
        "nmap -p 143",
        "3 <target>"
      ],
      [
        "nmap -p 152",
        "1 <target>"
      ],
      [
        "sslscan",
        " target.com"
      ],
      [
        "nmap -p 56",
        "7"
      ],
      [
        "nmap -p 543",
        "2 <target>"
      ],
      [
        "ed by",
        " a site?"
      ],
      [
        "ext:",
        "conf"
      ],
      [
        "nmap -p 3306",
        " <target>"
      ],
      [
        "curl -I http://target.com | grep -i cach",
        "e"
      ],
      [
        "Jenkins",
        " dashboards?"
      ],
      [
        "ign",
        "-re"
      ],
      [
        "index",
        " of\""
      ],
      [
        "How do I enumerate Kubernet",
        "es?"
      ],
      [
        "contac",
        "t"
      ],
      [
        " director",
        "ies?"
      ],
      [
        "Linux",
        "?"
      ],
      [
        "vulnerab",
        "ilities?"
      ],
      [
        "whatweb",
        " target.com"
      ],
      [
        "How do I enumerate Docker",
        "?"
      ],
      [
        "tificat",
        "es?"
      ],
      [
        " defaul",
        "t "
      ],
      [
        "TLS cipher",
        " su"
      ],
      [
        "snmpwalk -v2c -c ",
        "public "
      ],
      [
        " key",
        "words"
      ],
      [
        " ker",
        "nel"
      ],
      [
        "\":\"",
        "{__s"
      ],
      [
        "-A",
        "fter"
      ],
      [
        "-M",
        "odi"
      ],
      [
        "-Po",
        "licy"
      ],
      [
        ".t",
        "x"
      ],
      [
        "/dev/",
        "nul"
      ],
      [
        "509",
        " -"
      ],
      [
        "68.",
        "1.0/24"
      ],
      [
        "@ns",
        "1."
      ],
      [
        "Ac",
        "cep"
      ],
      [
        "All",
        "ow"
      ],
      [
        "CE",
        "RT"
      ],
      [
        "CN",
        "AME"
      ],
      [
        "CV",
        "E"
      ],
      [
        "Cloudflar",
        "e?"
      ],
      [
        "DS",
        "_Stor"
      ],
      [
        "Di",
        "spos"
      ],
      [
        "El",
        "asticsearch"
      ],
      [
        "GP",
        "S"
      ],
      [
        "HI",
        "NFO"
      ],
      [
        "Jav",
        "aScript "
      ],
      [
        "LO",
        "C"
      ],
      [
        "Len",
        "gth"
      ],
      [
        "Last",
        "-Modi"
      ],
      [
        "Mon",
        "go"
      ],
      [
        "Op",
        "tion"
      ],
      [
        "Ret",
        "ry"
      ],
      [
        "Rab",
        "bitMQ"
      ],
      [
        "Zoo",
        "keeper"
      ],
      [
        "ale",
        "ndar"
      ],
      [
        "aquat",
        "on"
      ],
      [
        "dra",
        " -"
      ],
      [
        "file",
        "s?"
      ],
      [
        "ferr",
        "er"
      ],
      [
        "gma",
        "il"
      ],
      [
        "gis",
        "tr"
      ],
      [
        "hy",
        "dra -"
      ],
      [
        "hist",
        "oric"
      ],
      [
        "l -",
        "s -w '%{"
      ],
      [
        "lass",
        "roo"
      ],
      [
        "mic",
        "rosof"
      ],
      [
        "mis",
        "configure"
      ],
      [
        "py",
        "thon"
      ],
      [
        "pres",
        "entation"
      ],
      [
        "rop",
        "box"
      ],
      [
        "rix",
        "?"
      ],
      [
        "structure",
        "?"
      ],
      [
        "temp",
        "lat"
      ],
      [
        "us ",
        "code "
      ],
      [
        "val",
        "u"
      ],
      [
        "{\"query",
        "\":\"{__s"
      ],
      [
        "ered-",
        "B"
      ],
      [
        "e fo",
        "lder"
      ],
      [
        "e yo",
        "u?"
      ],
      [
        "tar.g",
        "z"
      ],
      [
        "map.",
        "xml"
      ],
      [
        " fee",
        "ds?"
      ],
      [
        " favicon",
        ".ico"
      ],
      [
        "chema",
        "}\""
      ],
      [
        "one num",
        "ber"
      ],
      [
        "nmap --sc",
        "ript "
      ],
      [
        "How do I enumerate SNM",
        "P?"
      ],
      [
        "How do I enumerate Jenkin",
        "s?"
      ],
      [
        "How do I enumerate RD",
        "P?"
      ],
      [
        "How do I enumerate FT",
        "P?"
      ],
      [
        "How do I enumerate My",
        "SQL?"
      ],
      [
        "How do I enumerate Tel",
        "net?"
      ],
      [
        "How do I enumerate LD",
        "AP?"
      ],
      [
        "How do I enumerate VN",
        "C?"
      ],
      [
        "How do I enumerate Web",
        "Logic"
      ],
      [
        "How do I enumerate Postgre",
        "SQL?"
      ],
      [
        "How do I enumerate Oracle ",
        "DB?"
      ],
      [
        "How do I enumerate MSSQL",
        "?"
      ],
      [
        "How do I enumerate Cit",
        "rix?"
      ],
      [
        "How do I enumerate JBos",
        "s?"
      ],
      [
        "How do I enumerate To",
        "mcat?"
      ],
      [
        "How do I enumerate vSph",
        "ere?"
      ],
      [
        " <user",
        ">"
      ],
      [
        "nmap -p 44",
        "5 <target>"
      ],
      [
        "nmap -p 443",
        " <target>"
      ],
      [
        "nmap -p 700",
        "1 <target>"
      ],
      [
        "thread",
        "s?"
      ],
      [
        " audi",
        "o.mp3"
      ],
      [
        "disco",
        "ver"
      ],
      [
        "curl -o ",
        "/dev/nul"
      ],
      [
        "curl -L -v",
        " http://target.com"
      ],
      [
        "DNSS",
        "E"
      ],
      [
        " pho",
        "to.jp"
      ],
      [
        " panel",
        "s?"
      ],
      [
        "HTTP/2",
        " support?"
      ],
      [
        "use ssl",
        "yze or "
      ],
      [
        "use built",
        "with"
      ],
      [
        "use hun",
        "ter.io or "
      ],
      [
        "vide",
        "o.mp4"
      ],
      [
        "headers for ",
        "CDN"
      ],
      [
        "How do I check for open RD",
        "P ports?"
      ],
      [
        "curl -I http://target.com | grep Set-Cooki",
        "e"
      ],
      [
        " instanc",
        "es?"
      ],
      [
        "with sensit",
        "ive "
      ],
      [
        "How do I find public Google Driv",
        "e folder"
      ],
      [
        "dig example.com | grep -i",
        " ttl"
      ],
      [
        "ipinfo",
        ".io"
      ],
      [
        " image.",
        "jp"
      ],
      [
        "network",
        " interfaces?"
      ],
      [
        "scra",
        "pe HTML"
      ],
      [
        "search past",
        "ebin"
      ],
      [
        "nmap -p 237",
        "5 <target>"
      ],
      [
        "nmap -p 2701",
        "7"
      ],
      [
        "nmap -p 102",
        "50 <target>"
      ],
      [
        "nmap -p 149",
        "4 <target>"
      ],
      [
        " a host",
        "?"
      ],
      [
        "openssl x",
        "509 -"
      ],
      [
        "CDN pro",
        "vider"
      ],
      [
        "no-s",
        "ign-re"
      ],
      [
        "google dork: site:docs.google.com/spreadshe",
        "ets "
      ],
      [
        "X-Frame-",
        "Option"
      ],
      [
        "X-Pow",
        "ered-B"
      ],
      [
        "favicon",
        " hash"
      ],
      [
        "HTTP stat",
        "us code "
      ],
      [
        "s on Wind",
        "ows?"
      ],
      [
        " an SSL cer",
        "t?"
      ],
      [
        "How do I check if a domain ha",
        "s "
      ],
      [
        "dig +dn",
        "ssec example.com"
      ],
      [
        " 192.1",
        "68.1.0/24"
      ],
      [
        "[A-Za-z",
        "0-9"
      ],
      [
        " soci",
        "al "
      ],
      [
        "curl -I --compres",
        "sed "
      ],
      [
        "Dispos",
        "ition"
      ],
      [
        "Last-Modi",
        "fi"
      ],
      [
        "Retry",
        "-After"
      ],
      [
        "lassroo",
        "m"
      ],
      [
        "microsof",
        "t"
      ],
      [
        "{\"query\":\"{__s",
        "chema}\""
      ],
      [
        "How do I enumerate WebLogic",
        "?"
      ],
      [
        "curl -o /dev/nul",
        "l -s -w '%{"
      ],
      [
        "use hunter.io or ",
        "email"
      ],
      [
        "scrape HTML",
        " and "
      ],
      [
        "no-sign-re",
        "quest"
      ],
      [
        " ",
        "0"
      ],
      [
        " ",
        "R"
      ],
      [
        " ",
        "g"
      ],
      [
        " ",
        "|"
      ],
      [
        " ",
        "~"
      ],
      [
        " ",
        "ow"
      ],
      [
        " ",
        "ar"
      ],
      [
        " ",
        "or"
      ],
      [
        " ",
        "target"
      ],
      [
        " ",
        "on"
      ],
      [
        " ",
        "the "
      ],
      [
        " ",
        "| "
      ],
      [
        " ",
        "target.com "
      ],
      [
        " ",
        "example.com "
      ],
      [
        " ",
        "with"
      ],
      [
        " ",
        "log"
      ],
      [
        " ",
        "| grep -"
      ],
      [
        " ",
        "IP "
      ],
      [
        " ",
        "ls"
      ],
      [
        " ",
        "cod"
      ],
      [
        " ",
        "look"
      ],
      [
        " ",
        "github"
      ],
      [
        " ",
        "cont"
      ],
      [
        " ",
        "exploit"
      ],
      [
        " ",
        "languag"
      ],
      [
        " ",
        "comm"
      ],
      [
        " ",
        "API "
      ],
      [
        " ",
        "POST"
      ],
      [
        " ",
        "hand"
      ],
      [
        " ",
        "run"
      ],
      [
        " ",
        "compression"
      ],
      [
        " ",
        "4444"
      ],
      [
        " ",
        "ext:conf"
      ],
      [
        " ",
        "contact"
      ],
      [
        " ",
        "Linux?"
      ],
      [
        " ",
        "vulnerabilities?"
      ],
      [
        " ",
        "GPS"
      ],
      [
        " ",
        "Mongo"
      ],
      [
        " ",
        "valu"
      ],
      [
        " ",
        "network interfaces?"
      ],
      [
        "\"",
        "re"
      ],
      [
        "\"",
        " site:"
      ],
      [
        "\"",
        "' page.html"
      ],
      [
        "\"",
        "[^"
      ],
      [
        "\"",
        " \"company\""
      ],
      [
        "\"",
        ".git"
      ],
      [
        "\"",
        "templat"
      ],
      [
        "\"",
        " languag"
      ],
      [
        "%",
        "+"
      ],
      [
        "&",
        "1"
      ],
      [
        "&",
        " /"
      ],
      [
        "'",
        " http://target.com"
      ],
      [
        "'",
        " /"
      ],
      [
        "'",
        " >"
      ],
      [
        "'",
        "{\"query\":\"{__schema}\""
      ],
      [
        "(",
        "[0-9]{1,3}"
      ],
      [
        ")",
        "{"
      ],
      [
        "*",
        "."
      ],
      [
        "+",
        "trac"
      ],
      [
        ",",
        "}"
      ],
      [
        ",",
        " an"
      ],
      [
        ",",
        " I"
      ],
      [
        ",",
        " and "
      ],
      [
        ",",
        " cooki"
      ],
      [
        ",",
        " g"
      ],
      [
        "-",
        "1"
      ],
      [
        "-",
        "6"
      ],
      [
        "-",
        "T"
      ],
      [
[...]
